<pad>	0
<s>	0
</s>	0
<unk>	0
▁t	-0
he	-1
▁a	-2
on	-3
in	-4
▁the	-5
re	-6
at	-7
▁o	-8
en	-9
er	-10
ion	-11
it	-12
▁of	-13
nd	-14
or	-15
▁s	-16
es	-17
▁c	-18
al	-19
▁p	-20
ed	-21
▁w	-22
▁in	-23
is	-24
ou	-25
an	-26
▁and	-27
▁to	-28
ing	-29
▁f	-30
ar	-31
ent	-32
▁b	-33
ation	-34
ic	-35
▁m	-36
▁d	-37
▁re	-38
om	-39
ec	-40
le	-41
▁th	-42
▁I	-43
ve	-44
ro	-45
as	-46
▁h	-47
▁C	-48
▁S	-49
il	-50
ment	-51
▁T	-52
▁A	-53
▁n	-54
st	-55
00	-56
▁e	-57
ce	-58
▁for	-59
ra	-60
▁on	-61
ut	-62
im	-63
▁be	-64
▁g	-65
ol	-66
▁l	-67
id	-68
▁that	-69
ly	-70
ig	-71
▁con	-72
200	-73
▁y	-74
ur	-75
ot	-76
et	-77
▁pro	-78
▁(	-79
ct	-80
▁it	-81
se	-82
ter	-83
▁The	-84
▁you	-85
..	-86
op	-87
▁1	-88
ver	-89
ies	-90
▁M	-91
▁-	-92
ll	-93
▁P	-94
ort	-95
▁is	-96
▁as	-97
ir	-98
ith	-99
▁N	-100
▁u	-101
ect	-102
ations	-103
ow	-104
ad	-105
▁W	-106
ate	-107
ul	-108
▁with	-109
omm	-110
res	-111
ld	-112
▁st	-113
▁我	-114
▁de	-115
ity	-116
▁su	-117
▁G	-118
▁U	-119
▁D	-120
▁R	-121
ess	-122
her	-123
ay	-124
port	-125
igh	-126
ive	-127
em	-128
▁H	-129
▁we	-130
ial	-131
ch	-132
ab	-133
ff	-134
▁wh	-135
▁by	-136
oun	-137
art	-138
est	-139
um	-140
▁an	-141
▁or	-142
iv	-143
▁res	-144
▁O	-145
ight	-146
oc	-147
ers	-148
▁r	-149
ist	-150
ational	-151
end	-152
▁ex	-153
▁me	-154
▁B	-155
▁200	-156
qu	-157
ain	-158
▁E	-159
if	-160
▁F	-161
am	-162
▁are	-163
ill	-164
▁he	-165
ions	-166
ak	-167
ould	-168
te	-169
un	-170
▁ha	-171
vel	-172
▁not	-173
iz	-174
▁at	-175
ud	-176
ant	-177
ren	-178
od	-179
ge	-180
▁In	-181
rom	-182
▁was	-183
▁St	-184
▁im	-185
▁2	-186
国家	-187
ac	-188
▁Un	-189
委员	-190
os	-191
委员会	-192
▁v	-193
ited	-194
pp	-195
ary	-196
ri	-197
会议	-198
tern	-199
th	-200
▁sh	-201
us	-202
and	-203
ance	-204
▁ad	-205
ie	-206
ust	-207
▁its	-208
▁你	-209
▁L	-210
...	-211
▁Comm	-212
联合	-213
▁Y	-214
▁part	-215
▁ne	-216
ep	-217
ore	-218
问题	-219
ount	-220
our	-221
▁le	-222
▁have	-223
ber	-224
velop	-225
el	-226
▁al	-227
ther	-228
▁United	-229
99	-230
ork	-231
▁com	-232
▁en	-233
▁this	-234
▁inc	-235
国际	-236
ure	-237
eral	-238
▁cont	-239
▁all	-240
工作	-241
▁from	-242
▁ag	-243
ated	-244
all	-245
rou	-246
联合国	-247
ard	-248
over	-249
cc	-250
ternational	-251
gra	-252
ates	-253
▁k	-254
ap	-255
ip	-256
报告	-257
▁Nations	-258
▁imp	-259
ia	-260
▁Con	-261
发展	-262
lic	-263
ments	-264
red	-265
▁J	-266
▁ch	-267
ich	-268
iss	-269
eneral	-270
orm	-271
▁reg	-272
▁3	-273
▁right	-274
▁develop	-275
ities	-276
ice	-277
ome	-278
▁Th	-279
ord	-280
ical	-281
▁act	-282
▁their	-283
▁which	-284
ution	-285
一个	-286
组织	-287
ountr	-288
▁rec	-289
ea	-290
▁j	-291
gh	-292
▁has	-293
▁prov	-294
▁will	-295
▁app	-296
vent	-297
▁It	-298
ress	-299
ans	-300
able	-301
ru	-302
ult	-303
itte	-304
form	-305
nder	-306
▁Sec	-307
▁do	-308
▁dis	-309
▁comm	-310
▁countr	-311
我们	-312
overn	-313
ub	-314
ittee	-315
▁As	-316
uman	-317
▁sp	-318
▁exp	-319
ib	-320
▁report	-321
▁这	-322
▁cons	-323
▁go	-324
▁ab	-325
▁se	-326
ous	-327
政府	-328
▁co	-329
▁comp	-330
▁在	-331
uc	-332
关于	-333
▁You	-334
▁States	-335
▁Committee	-336
▁We	-337
mm	-338
lud	-339
▁work	-340
ret	-341
提供	-342
▁per	-343
ons	-344
▁out	-345
方面	-346
▁ass	-347
▁ar	-348
ose	-349
▁international	-350
▁acc	-351
▁been	-352
so	-353
▁“	-354
▁under	-355
ke	-356
ide	-357
lement	-358
ake	-359
gan	-360
▁5	-361
▁pl	-362
以及	-363
▁eff	-364
▁other	-365
ional	-366
ence	-367
ces	-368
▁had	-369
ission	-370
out	-371
社会	-372
hen	-373
▁4	-374
cil	-375
),	-376
▁Wh	-377
决议	-378
pport	-379
ild	-380
他们	-381
▁He	-382
▁would	-383
▁also	-384
▁pre	-385
ted	-386
▁should	-387
ong	-388
ganiz	-389
代表	-390
行动	-391
lo	-392
▁Coun	-393
ue	-394
age	-395
其他	-396
▁resol	-397
▁includ	-398
▁can	-399
▁were	-400
▁Ch	-401
▁sub	-402
eration	-403
ative	-404
特别	-405
gramm	-406
erv	-407
▁man	-408
aw	-409
resent	-410
情况	-411
执行	-412
▁Council	-413
ign	-414
ast	-415
▁up	-416
安全	-417
通过	-418
og	-419
reat	-420
包括	-421
有关	-422
ime	-423
ear	-424
▁pol	-425
urity	-426
now	-427
进行	-428
机构	-429
▁我们	-430
▁un	-431
▁K	-432
▁int	-433
ost	-434
ember	-435
方案	-436
ian	-437
什么	-438
▁there	-439
▁resp	-440
秘书	-441
▁tr	-442
ire	-443
act	-444
▁fin	-445
ase	-446
mb	-447
这些	-448
▁partic	-449
▁dec	-450
overnment	-451
eren	-452
ish	-453
没有	-454
ree	-455
▁your	-456
oll	-457
▁sec	-458
10	-459
所有	-460
▁requ	-461
▁conc	-462
▁Pro	-463
omen	-464
ublic	-465
▁human	-466
▁countries	-467
one	-468
▁tra	-469
人权	-470
ric	-471
▁my	-472
▁know	-473
经济	-474
▁development	-475
公约	-476
ph	-477
▁ind	-478
▁need	-479
anc	-480
▁they	-481
▁so	-482
▁implement	-483
▁UN	-484
▁No	-485
onom	-486
理事	-487
妇女	-488
ech	-489
ject	-490
▁rel	-491
ag	-492
ecial	-493
ction	-494
▁off	-495
du	-496
ok	-497
大会	-498
pt	-499
ine	-500
vention	-501
12	-502
▁li	-503
▁6	-504
199	-505
▁rights	-506
▁ob	-507
ific	-508
▁inform	-509
eting	-510
ual	-511
iew	-512
rib	-513
▁support	-514
理事会	-515
ty	-516
ures	-517
▁resolution	-518
活动	-519
▁them	-520
合作	-521
ack	-522
▁Secret	-523
▁proc	-524
ara	-525
建议	-526
ident	-527
▁cl	-528
ection	-529
ft	-530
per	-531
▁add	-532
ors	-533
▁不	-534
.1	-535
▁any	-536
▁one	-537
ession	-538
ms	-539
/5	-540
▁am	-541
▁Re	-542
需要	-543
roup	-544
very	-545
ens	-546
ry	-547
▁such	-548
ility	-549
项目	-550
ular	-551
ew	-552
ition	-553
▁rep	-554
ade	-555
semb	-556
人员	-557
▁who	-558
▁organiz	-559
eace	-560
sembly	-561
eop	-562
ory	-563
und	-564
▁pr	-565
▁inv	-566
ating	-567
▁bet	-568
we	-569
su	-570
▁199	-571
enc	-572
▁General	-573
可能	-574
▁us	-575
▁Assembly	-576
rough	-577
ern	-578
ond	-579
和平	-580
▁programm	-581
abl	-582
▁just	-583
规定	-584
可以	-585
feren	-586
▁他	-587
决定	-588
▁again	-589
▁women	-590
stit	-591
▁more	-592
yst	-593
▁no	-594
缔约	-595
ace	-596
▁ter	-597
儿童	-598
ision	-599
根据	-600
tic	-601
).	-602
imin	-603
ystem	-604
▁est	-605
采取	-606
▁including	-607
▁but	-608
▁pers	-609
区域	-610
rop	-611
ven	-612
▁Commission	-613
▁about	-614
▁what	-615
ious	-616
▁meeting	-617
必须	-618
▁Af	-619
/2	-620
onomic	-621
▁like	-622
▁national	-623
这一	-624
ices	-625
ail	-626
知道	-627
▁don	-628
主义	-629
au	-630
here	-631
▁over	-632
min	-633
▁those	-634
提出	-635
▁contin	-636
▁7	-637
get	-638
计划	-639
▁What	-640
▁session	-641
General	-642
▁his	-643
▁State	-644
▁Rep	-645
▁dra	-646
▁Dec	-647
▁year	-648
utions	-649
ives	-650
▁And	-651
▁qu	-652
▁law	-653
rit	-654
世界	-655
▁trans	-656
are	-657
秘书长	-658
▁information	-659
▁para	-660
措施	-661
重要	-662
hed	-663
▁Secretary	-664
ference	-665
ach	-666
ame	-667
法律	-668
▁made	-669
graph	-670
ex	-671
▁peop	-672
▁system	-673
先生	-674
orld	-675
▁pos	-676
19	-677
▁V	-678
ink	-679
权利	-680
▁De	-681
▁Mr	-682
▁some	-683
▁time	-684
les	-685
air	-686
支持	-687
pos	-688
▁into	-689
▁sa	-690
技术	-691
oin	-692
ank	-693
/200	-694
管理	-695
▁through	-696
ile	-697
号决议	-698
ommend	-699
▁concern	-700
▁activ	-701
▁soc	-702
ts	-703
)。	-704
▁ro	-705
▁Convention	-706
▁child	-707
▁peace	-708
ective	-709
继续	-710
主席	-711
▁International	-712
成员	-713
ract	-714
▁第	-715
认为	-716
▁ec	-717
▁establ	-718
▁implementation	-719
▁19	-720
▁tw	-721
man	-722
ove	-723
▁well	-724
▁ent	-725
▁leg	-726
▁commun	-727
ang	-728
努力	-729
▁att	-730
▁provid	-731
11	-732
ollow	-733
▁This	-734
▁Government	-735
▁gu	-736
如果	-737
mit	-738
▁Is	-739
ied	-740
▁against	-741
ook	-742
▁cent	-743
▁if	-744
▁Sp	-745
echn	-746
▁new	-747
▁disc	-748
ible	-749
▁8	-750
▁him	-751
保护	-752
▁our	-753
ased	-754
▁particular	-755
▁inter	-756
▁em	-757
fore	-758
▁但	-759
▁import	-760
届会议	-761
▁here	-762
▁recommend	-763
▁assist	-764
ticle	-765
基金	-766
草案	-767
uring	-768
ally	-769
▁could	-770
ween	-771
▁"	-772
促进	-773
▁effort	-774
加强	-775
的人	-776
要求	-777
任何	-778
operation	-779
ind	-780
注意	-781
▁get	-782
bers	-783
▁Ad	-784
iol	-785
▁prom	-786
▁el	-787
▁adop	-788
.2	-789
irst	-790
▁between	-791
政策	-792
▁serv	-793
lear	-794
系统	-795
▁meas	-796
▁activities	-797
▁ref	-798
ful	-799
/6	-800
▁rem	-801
▁did	-802
▁people	-803
ise	-804
的一	-805
影响	-806
资源	-807
▁may	-808
uth	-809
ffic	-810
▁draft	-811
▁take	-812
leg	-813
ism	-814
ass	-815
15	-816
▁Security	-817
行为	-818
不是	-819
▁tak	-820
rimin	-821
▁conf	-822
▁follow	-823
▁her	-824
▁sit	-825
▁Afric	-826
▁see	-827
ources	-828
▁9	-829
old	-830
▁That	-831
▁rev	-832
目标	-833
▁these	-834
援助	-835
ving	-836
ange	-837
已经	-838
▁inte	-839
▁process	-840
▁10	-841
▁consid	-842
▁prot	-843
hip	-844
因为	-845
▁financ	-846
▁di	-847
20	-848
▁security	-849
ved	-850
▁是	-851
▁ra	-852
▁incre	-853
▁want	-854
embers	-855
ough	-856
美元	-857
▁sc	-858
▁issu	-859
vers	-860
▁ens	-861
ilit	-862
rate	-863
▁represent	-864
▁cap	-865
▁regard	-866
▁An	-867
确保	-868
▁country	-869
文件	-870
▁Right	-871
▁polic	-872
▁only	-873
der	-874
提交	-875
武器	-876
urther	-877
▁那	-878
ural	-879
缔约国	-880
▁Develop	-881
现在	-882
服务	-883
inc	-884
ell	-885
▁now	-886
▁efforts	-887
ert	-888
▁paragraph	-889
▁two	-890
部分	-891
1.	-892
uation	-893
建立	-894
▁level	-895
eth	-896
▁techn	-897
能力	-898
ays	-899
3.	-900
环境	-901
iat	-902
up	-903
uss	-904
ized	-905
▁organizations	-906
na	-907
▁num	-908
▁measures	-909
ings	-910
的报告	-911
各国	-912
ound	-913
▁Republic	-914
▁mat	-915
▁cooperation	-916
▁use	-917
作为	-918
和国	-919
ute	-920
信息	-921
协调	-922
▁Ex	-923
▁request	-924
als	-925
ected	-926
审议	-927
▁Conference	-928
ency	-929
▁For	-930
▁when	-931
▁than	-932
教育	-933
ood	-934
de	-935
▁call	-936
这个	-937
斯坦	-938
▁must	-939
ration	-940
ble	-941
ards	-942
uthor	-943
▁Or	-944
非洲	-945
li	-946
全球	-947
2.	-948
举行	-949
aff	-950
作出	-951
▁viol	-952
▁set	-953
bal	-954
▁bec	-955
政治	-956
▁good	-957
共和国	-958
ark	-959
ene	-960
发言	-961
安全理事会	-962
▁particip	-963
arm	-964
▁how	-965
4.	-966
▁Part	-967
▁members	-968
▁All	-969
▁promot	-970
▁des	-971
▁[	-972
alth	-973
实现	-974
ters	-975
审查	-976
▁Ar	-977
ization	-978
rent	-979
之间	-980
▁det	-981
主要	-982
ges	-983
▁appro	-984
的工作	-985
解决	-986
▁rele	-987
30	-988
▁make	-989
▁children	-990
resident	-991
使用	-992
部门	-993
olog	-994
因此	-995
sel	-996
▁Development	-997
oth	-998
ys	-999
▁bel	-1000
▁mon	-1001
▁address	-1002
一些	-1003
▁resources	-1004
▁Rights	-1005
▁好	-1006
led	-1007
这种	-1008
▁where	-1009
参与	-1010
▁order	-1011
▁non	-1012
▁propos	-1013
ocu	-1014
itical	-1015
考虑	-1016
enda	-1017
▁fund	-1018
▁equ	-1019
▁On	-1020
▁contrib	-1021
ix	-1022
▁Human	-1023
▁public	-1024
ause	-1025
▁委员会	-1026
事务	-1027
▁But	-1028
我的	-1029
地区	-1030
agement	-1031
▁programme	-1032
▁got	-1033
▁How	-1034
iod	-1035
▁Al	-1036
讨论	-1037
vant	-1038
ict	-1039
av	-1040
的是	-1041
▁assistance	-1042
研究	-1043
▁end	-1044
▁group	-1045
▁present	-1046
ever	-1047
5.	-1048
▁think	-1049
▁economic	-1050
得到	-1051
▁ext	-1052
有效	-1053
king	-1054
6.	-1055
▁form	-1056
stru	-1057
land	-1058
▁pur	-1059
oint	-1060
ror	-1061
ning	-1062
▁years	-1063
关系	-1064
lobal	-1065
议程	-1066
ivil	-1067
小组	-1068
▁she	-1069
own	-1070
▁number	-1071
duct	-1072
▁financial	-1073
/1	-1074
▁shall	-1075
ob	-1076
人民	-1077
战略	-1078
000	-1079
ained	-1080
▁Group	-1081
isions	-1082
);	-1083
▁accord	-1084
ient	-1085
row	-1086
期间	-1087
7.	-1088
▁ann	-1089
ordin	-1090
领域	-1091
▁provide	-1092
持续	-1093
ished	-1094
代表团	-1095
▁further	-1096
ite	-1097
▁first	-1098
你的	-1099
▁issues	-1100
ah	-1101
ieve	-1102
▁regional	-1103
▁They	-1104
其中	-1105
就是	-1106
▁At	-1107
▁ensure	-1108
ince	-1109
gy	-1110
▁period	-1111
onment	-1112
这样	-1113
gress	-1114
注意到	-1115
reng	-1116
▁author	-1117
▁ac	-1118
▁main	-1119
ium	-1120
ining	-1121
uild	-1122
vir	-1123
▁article	-1124
▁respons	-1125
作用	-1126
sp	-1127
▁world	-1128
med	-1129
8.	-1130
▁Ag	-1131
▁sign	-1132
▁Special	-1133
冲突	-1134
▁ed	-1135
ability	-1136
▁special	-1137
▁back	-1138
pr	-1139
人的	-1140
增加	-1141
ention	-1142
▁commit	-1143
▁social	-1144
▁有	-1145
预算	-1146
amp	-1147
▁oper	-1148
▁poss	-1149
rat	-1150
▁plan	-1151
▁state	-1152
ull	-1153
▁review	-1154
指出	-1155
特别是	-1156
恐怖	-1157
irect	-1158
▁There	-1159
自己	-1160
▁对	-1161
▁said	-1162
-200	-1163
▁op	-1164
ov	-1165
loy	-1166
▁result	-1167
▁20	-1168
方面的	-1169
▁developing	-1170
开展	-1171
▁Min	-1172
▁effective	-1173
表示	-1174
怎么	-1175
▁docu	-1176
贸易	-1177
▁President	-1178
ean	-1179
com	-1180
ily	-1181
▁fac	-1182
▁cur	-1183
▁bas	-1184
ner	-1185
vironment	-1186
条约	-1187
实施	-1188
▁为	-1189
ting	-1190
then	-1191
▁ach	-1192
——	-1193
rengthen	-1194
dd	-1195
udget	-1196
▁view	-1197
▁account	-1198
▁她	-1199
▁dem	-1200
获得	-1201
▁within	-1202
▁2000	-1203
▁Co	-1204
▁Off	-1205
▁decision	-1206
▁instit	-1207
▁Oh	-1208
▁car	-1209
other	-1210
发展中	-1211
ucation	-1212
iven	-1213
ality	-1214
▁$	-1215
▁establish	-1216
一步	-1217
▁being	-1218
▁af	-1219
reed	-1220
它们	-1221
its	-1222
强调	-1223
ety	-1224
▁cr	-1225
rol	-1226
▁Am	-1227
urop	-1228
ploy	-1229
▁political	-1230
不能	-1231
aration	-1232
▁way	-1233
▁person	-1234
▁relevant	-1235
必要	-1236
任务	-1237
▁services	-1238
程序	-1239
应该	-1240
ines	-1241
▁aw	-1242
的问题	-1243
gramme	-1244
▁adopted	-1245
▁So	-1246
▁most	-1247
意见	-1248
犯罪	-1249
arch	-1250
▁Organiz	-1251
incip	-1252
▁before	-1253
▁every	-1254
第二	-1255
能够	-1256
▁av	-1257
取得	-1258
xt	-1259
▁continu	-1260
特派	-1261
资料	-1262
▁December	-1263
▁provided	-1264
rest	-1265
正在	-1266
相关	-1267
▁deleg	-1268
▁Office	-1269
▁pract	-1270
▁item	-1271
▁project	-1272
.4	-1273
秘书处	-1274
ral	-1275
中的	-1276
▁quest	-1277
wn	-1278
支助	-1279
▁respect	-1280
▁impro	-1281
▁Europ	-1282
uch	-1283
ariat	-1284
▁如果	-1285
欧洲	-1286
round	-1287
▁programmes	-1288
▁situation	-1289
ants	-1290
▁strengthen	-1291
美国	-1292
以便	-1293
enn	-1294
特派团	-1295
itional	-1296
处理	-1297
进程	-1298
▁prep	-1299
2001	-1300
原则	-1301
aking	-1302
希望	-1303
▁capac	-1304
....	-1305
urn	-1306
▁Le	-1307
▁ev	-1308
而且	-1309
ife	-1310
发展中国家	-1311
▁civil	-1312
cept	-1313
aj	-1314
▁2002	-1315
▁def	-1316
▁party	-1317
确定	-1318
▁areas	-1319
minist	-1320
▁look	-1321
▁important	-1322
▁taken	-1323
基础	-1324
ug	-1325
▁held	-1326
的国家	-1327
▁2005	-1328
进一步	-1329
目前	-1330
▁Ind	-1331
▁community	-1332
▁high	-1333
参加	-1334
iation	-1335
开始	-1336
▁15	-1337
的情况	-1338
ina	-1339
ibility	-1340
▁action	-1341
一项	-1342
▁min	-1343
lp	-1344
Add	-1345
eah	-1346
▁continue	-1347
▁2004	-1348
▁parties	-1349
日第	-1350
办法	-1351
▁health	-1352
uclear	-1353
3,	-1354
问题的	-1355
ize	-1356
时间	-1357
ecess	-1358
ulation	-1359
▁very	-1360
):	-1361
ram	-1362
责任	-1363
▁great	-1364
你们	-1365
▁ke	-1366
oura	-1367
▁help	-1368
法院	-1369
ks	-1370
▁2006	-1371
▁sect	-1372
▁among	-1373
ender	-1374
14	-1375
ater	-1376
ases	-1377
▁En	-1378
illion	-1379
▁staff	-1380
▁submit	-1381
▁Rec	-1382
▁invest	-1383
1,	-1384
▁cour	-1385
▁agree	-1386
▁init	-1387
ament	-1388
▁他们	-1389
▁let	-1390
中心	-1391
共同	-1392
调查	-1393
▁conflic	-1394
▁many	-1395
▁during	-1396
提高	-1397
▁fact	-1398
▁both	-1399
发生	-1400
vis	-1401
▁strate	-1402
▁global	-1403
▁say	-1404
及其	-1405
tle	-1406
2004	-1407
▁一	-1408
▁loc	-1409
▁Ec	-1410
▁treat	-1411
ave	-1412
▁She	-1413
▁Pal	-1414
kay	-1415
ait	-1416
▁aff	-1417
说明	-1418
联盟	-1419
2000	-1420
▁12	-1421
工作组	-1422
13	-1423
▁going	-1424
ropri	-1425
的各	-1426
▁spec	-1427
方式	-1428
专家	-1429
充分	-1430
▁long	-1431
一次	-1432
2002	-1433
▁legal	-1434
uilding	-1435
▁discuss	-1436
icial	-1437
▁management	-1438
和其他	-1439
duction	-1440
▁terror	-1441
▁proble	-1442
歧视	-1443
▁accordance	-1444
民主	-1445
机制	-1446
▁necess	-1447
II	-1448
巴勒	-1449
▁access	-1450
许多	-1451
行政	-1452
▁Programme	-1453
▁protection	-1454
2005	-1455
安理	-1456
ilities	-1457
▁agenda	-1458
rior	-1459
同时	-1460
ired	-1461
暴力	-1462
巴勒斯坦	-1463
培训	-1464
▁persons	-1465
▁after	-1466
/4	-1467
itions	-1468
由于	-1469
▁policy	-1470
机会	-1471
ogn	-1472
▁progress	-1473
利用	-1474
▁come	-1475
▁lead	-1476
▁Organization	-1477
arian	-1478
▁express	-1479
会员	-1480
ady	-1481
▁Africa	-1482
▁bod	-1483
伙伴	-1484
▁stand	-1485
▁princip	-1486
duc	-1487
▁budget	-1488
▁education	-1489
▁place	-1490
▁down	-1491
▁same	-1492
ield	-1493
决议草案	-1494
自由	-1495
ified	-1496
▁appropri	-1497
安理会	-1498
▁full	-1499
▁does	-1500
附件	-1501
滋病	-1502
框架	-1503
▁Soc	-1504
▁Palest	-1505
ners	-1506
▁object	-1507
▁current	-1508
ister	-1509
▁Work	-1510
ird	-1511
stand	-1512
以色	-1513
▁role	-1514
▁If	-1515
以色列	-1516
艾滋病	-1517
▁还	-1518
9.	-1519
平等	-1520
会员国	-1521
制定	-1522
▁following	-1523
”,	-1524
制度	-1525
办事	-1526
ower	-1527
利亚	-1528
16	-1529
▁2.	-1530
维持	-1531
aim	-1532
▁To	-1533
pl	-1534
人口	-1535
eric	-1536
▁Member	-1537
▁general	-1538
▁1.	-1539
▁capacity	-1540
家庭	-1541
▁该	-1542
sh	-1543
部队	-1544
恐怖主义	-1545
▁Prot	-1546
▁ser	-1547
▁without	-1548
司法	-1549
▁prior	-1550
ared	-1551
ification	-1552
▁rece	-1553
具体	-1554
▁working	-1555
itor	-1556
尼亚	-1557
ify	-1558
▁Bo	-1559
▁coordin	-1560
▁require	-1561
新的	-1562
▁World	-1563
ecut	-1564
欢迎	-1565
办事处	-1566
rael	-1567
评估	-1568
减少	-1569
18	-1570
ects	-1571
标准	-1572
7,	-1573
可持续	-1574
ential	-1575
▁three	-1576
全面	-1577
▁enc	-1578
范围	-1579
esp	-1580
地方	-1581
une	-1582
ework	-1583
ramework	-1584
▁proced	-1585
go	-1586
消除	-1587
ee	-1588
▁recommendations	-1589
承诺	-1590
erc	-1591
day	-1592
数据	-1593
▁environment	-1594
▁May	-1595
用于	-1596
▁consider	-1597
▁fam	-1598
/3	-1599
2006	-1600
最后	-1601
建设	-1602
人道	-1603
▁ret	-1604
▁then	-1605
文化	-1606
进展	-1607
▁stat	-1608
▁occ	-1609
▁Well	-1610
overnmental	-1611
onna	-1612
▁consult	-1613
▁Israel	-1614
ten	-1615
▁这是	-1616
高级	-1617
▁since	-1618
apons	-1619
义务	-1620
适当	-1621
难民	-1622
lus	-1623
lig	-1624
▁cor	-1625
开发	-1626
正式	-1627
▁cost	-1628
在这	-1629
ivers	-1630
ID	-1631
咨询	-1632
应当	-1633
rab	-1634
▁Economic	-1635
▁ur	-1636
sue	-1637
▁Not	-1638
协定	-1639
▁mand	-1640
按照	-1641
的第	-1642
生活	-1643
缔约方	-1644
基本	-1645
▁indic	-1646
▁appropriate	-1647
▁even	-1648
itarian	-1649
不会	-1650
▁sm	-1651
▁exper	-1652
rong	-1653
▁assess	-1654
存在	-1655
2003	-1656
严重	-1657
▁fun	-1658
▁soci	-1659
▁established	-1660
▁13	-1661
ainable	-1662
次会议	-1663
▁training	-1664
hes	-1665
▁cond	-1666
▁reports	-1667
▁此	-1668
▁sust	-1669
▁ident	-1670
▁avail	-1671
▁coll	-1672
▁possible	-1673
▁gonna	-1674
▁—	-1675
条件	-1676
▁14	-1677
▁necessary	-1678
▁invol	-1679
▁Govern	-1680
▁Social	-1681
▁Parties	-1682
议定	-1683
ick	-1684
▁million	-1685
▁document	-1686
造成	-1687
outh	-1688
▁My	-1689
▁请	-1690
ered	-1691
echan	-1692
ool	-1693
▁because	-1694
0.	-1695
是否	-1696
▁ph	-1697
▁关于	-1698
▁Dep	-1699
认识	-1700
▁upon	-1701
8,	-1702
▁cre	-1703
IC	-1704
ajor	-1705
▁case	-1706
成为	-1707
ath	-1708
oy	-1709
ended	-1710
▁comple	-1711
ather	-1712
公司	-1713
▁diff	-1714
鼓励	-1715
工作人员	-1716
▁own	-1717
▁gender	-1718
▁因此	-1719
17	-1720
▁nuclear	-1721
▁oblig	-1722
▁related	-1723
▁Yeah	-1724
CN	-1725
规则	-1726
▁integ	-1727
接受	-1728
方法	-1729
self	-1730
▁fe	-1731
erman	-1732
▁African	-1733
ules	-1734
▁联合国	-1735
▁br	-1736
▁find	-1737
▁exist	-1738
▁som	-1739
▁neg	-1740
ont	-1741
▁ful	-1742
ww	-1743
riminal	-1744
▁Americ	-1745
▁post	-1746
▁med	-1747
▁《	-1748
ept	-1749
▁interest	-1750
25	-1751
ged	-1752
irl	-1753
thing	-1754
▁fore	-1755
▁var	-1756
eping	-1757
ennium	-1758
isl	-1759
imate	-1760
▁June	-1761
设立	-1762
▁while	-1763
议定书	-1764
▁Do	-1765
▁remain	-1766
▁inf	-1767
到了	-1768
▁still	-1769
▁就	-1770
不同	-1771
airs	-1772
▁last	-1773
▁claim	-1774
ology	-1775
.3	-1776
协助	-1777
▁New	-1778
费用	-1779
imes	-1780
rimination	-1781
时候	-1782
ruct	-1783
拉克	-1784
laration	-1785
只是	-1786
iving	-1787
尤其	-1788
》,	-1789
ances	-1790
投资	-1791
ived	-1792
结果	-1793
▁Gu	-1794
▁pop	-1795
的事	-1796
领土	-1797
▁wel	-1798
▁provisions	-1799
tion	-1800
▁violence	-1801
阿拉	-1802
▁technical	-1803
负责	-1804
atives	-1805
▁bro	-1806
▁care	-1807
▁life	-1808
▁real	-1809
▁mechan	-1810
▁但是	-1811
▁dat	-1812
▁much	-1813
ics	-1814
▁recogn	-1815
▁lit	-1816
▁major	-1817
▁conflict	-1818
governmental	-1819
ness	-1820
ocol	-1821
个人	-1822
▁supp	-1823
做法	-1824
▁Let	-1825
ined	-1826
国际社会	-1827
▁each	-1828
1999	-1829
资金	-1830
rug	-1831
▁ins	-1832
▁consideration	-1833
▁differen	-1834
▁question	-1835
encies	-1836
非常	-1837
▁issue	-1838
▁deb	-1839
▁tal	-1840
lease	-1841
▁basis	-1842
▁framework	-1843
如何	-1844
▁beh	-1845
非政府	-1846
具有	-1847
uly	-1848
▁Palestin	-1849
ultural	-1850
▁give	-1851
▁needs	-1852
▁applic	-1853
ale	-1854
▁Pol	-1855
▁Board	-1856
overty	-1857
▁institutions	-1858
▁然	-1859
▁delegation	-1860
por	-1861
▁too	-1862
宣言	-1863
▁list	-1864
▁encoura	-1865
▁dist	-1866
alf	-1867
▁foc	-1868
▁used	-1869
日至	-1870
▁jud	-1871
地位	-1872
ateral	-1873
预防	-1874
come	-1875
▁Fin	-1876
▁Just	-1877
▁European	-1878
50	-1879
伊拉克	-1880
▁importance	-1881
▁field	-1882
ilitary	-1883
ivid	-1884
allen	-1885
人道主义	-1886
▁second	-1887
▁partners	-1888
ros	-1889
for	-1890
▁Cour	-1891
▁trade	-1892
▁3.	-1893
▁Working	-1894
enef	-1895
▁这些	-1896
▁Law	-1897
第三	-1898
大的	-1899
▁Sh	-1900
改革	-1901
artment	-1902
产生	-1903
安排	-1904
形式	-1905
▁groups	-1906
▁girl	-1907
isc	-1908
武装	-1909
ope	-1910
uck	-1911
eur	-1912
▁stud	-1913
并且	-1914
▁instru	-1915
▁Act	-1916
▁2001	-1917
▁region	-1918
之间的	-1919
ised	-1920
ages	-1921
▁clear	-1922
ets	-1923
ilateral	-1924
▁adv	-1925
▁Cent	-1926
CO	-1927
帮助	-1928
▁Fund	-1929
▁Chair	-1930
法庭	-1931
▁control	-1932
两个	-1933
性别	-1934
▁National	-1935
受到	-1936
▁grow	-1937
▁hand	-1938
▁tell	-1939
ething	-1940
ital	-1941
大会第	-1942
▁include	-1943
▁never	-1944
非政府组织	-1945
▁concerned	-1946
之前	-1947
阿拉伯	-1948
▁humanitarian	-1949
cy	-1950
unity	-1951
▁available	-1952
uture	-1953
▁18	-1954
▁mark	-1955
种族	-1956
▁Court	-1957
▁16	-1958
告诉	-1959
重申	-1960
ock	-1961
ober	-1962
raq	-1963
▁July	-1964
▁resolutions	-1965
aren	-1966
less	-1967
▁benef	-1968
▁increase	-1969
▁2003	-1970
涉及	-1971
▁happ	-1972
ars	-1973
▁此外	-1974
TA	-1975
ban	-1976
orry	-1977
谈判	-1978
▁legisl	-1979
▁meetings	-1980
▁direct	-1981
各种	-1982
▁six	-1983
那些	-1984
▁Reg	-1985
一种	-1986
▁Arab	-1987
实际	-1988
监测	-1989
▁sur	-1990
▁Iraq	-1991
▁pay	-1992
积极	-1993
ption	-1994
▁note	-1995
uge	-1996
▁noted	-1997
▁means	-1998
,000	-1999
▁30	-2000
▁mult	-2001
ule	-2002
▁cases	-2003
▁Man	-2004
irc	-2005
▁...	-2006
他的	-2007
az	-2008
be	-2009
▁nat	-2010
iness	-2011
idered	-2012
▁achieve	-2013
来的	-2014
▁Report	-2015
▁policies	-2016
▁better	-2017
国家的	-2018
▁weapons	-2019
▁enh	-2020
ployment	-2021
istan	-2022
▁当	-2023
▁mod	-2024
▁Z	-2025
ceed	-2026
chool	-2027
▁mar	-2028
▁Union	-2029
2008	-2030
▁rest	-2031
公共	-2032
▁future	-2033
▁area	-2034
▁poverty	-2035
有关的	-2036
▁val	-2037
▁recent	-2038
▁considered	-2039
记录	-2040
ividual	-2041
▁Can	-2042
eptember	-2043
国内	-2044
▁Come	-2045
▁annex	-2046
)、	-2047
▁Action	-2048
协商	-2049
▁particularly	-2050
▁guid	-2051
报告员	-2052
▁Don	-2053
▁local	-2054
▁understand	-2055
▁obs	-2056
22	-2057
▁所	-2058
tain	-2059
2007	-2060
epend	-2061
▁mean	-2062
▁September	-2063
之后	-2064
▁Tr	-2065
ocrat	-2066
▁proposed	-2067
▁challen	-2068
arge	-2069
优先	-2070
▁•	-2071
尽管	-2072
提出的	-2073
issions	-2074
银行	-2075
▁put	-2076
▁Secretariat	-2077
▁submitted	-2078
▁根据	-2079
▁Hey	-2080
国的	-2081
▁improve	-2082
▁prevent	-2083
挑战	-2084
▁我不	-2085
ross	-2086
▁day	-2087
▁focus	-2088
DP	-2089
生产	-2090
▁something	-2091
CC	-2092
▁With	-2093
9,	-2094
▁priv	-2095
▁tow	-2096
▁administ	-2097
▁promote	-2098
当局	-2099
ctions	-2100
armament	-2101
选举	-2102
▁play	-2103
keeping	-2104
▁Palestinian	-2105
ried	-2106
议程项目	-2107
年的	-2108
ves	-2109
履行	-2110
▁impact	-2111
ck	-2112
性的	-2113
▁opport	-2114
▁individual	-2115
例如	-2116
▁lim	-2117
▁really	-2118
▁spe	-2119
独立	-2120
▁elect	-2121
▁ris	-2122
▁ear	-2123
idence	-2124
上的	-2125
ouse	-2126
80	-2127
▁4.	-2128
sequ	-2129
这是	-2130
▁war	-2131
临时	-2132
▁Su	-2133
▁subst	-2134
ience	-2135
▁kill	-2136
▁data	-2137
▁17	-2138
▁sol	-2139
▁sector	-2140
▁Declaration	-2141
▁strateg	-2142
成果	-2143
▁Tra	-2144
atory	-2145
▁based	-2146
结束	-2147
▁comb	-2148
▁head	-2149
控制	-2150
iate	-2151
▁Represent	-2152
▁saf	-2153
mber	-2154
▁allow	-2155
▁official	-2156
一起	-2157
see	-2158
▁它	-2159
完成	-2160
最近	-2161
ents	-2162
ax	-2163
▁specific	-2164
ccess	-2165
the	-2166
ertain	-2167
”.	-2168
第一	-2169
▁military	-2170
ief	-2171
▁te	-2172
批准	-2173
▁aim	-2174
军事	-2175
org	-2176
ced	-2177
一切	-2178
打击	-2179
__	-2180
▁society	-2181
仍然	-2182
text	-2183
▁land	-2184
▁Women	-2185
ences	-2186
▁open	-2187
ctober	-2188
/7	-2189
集团	-2190
▁Governments	-2191
▁monitor	-2192
领导	-2193
oss	-2194
nel	-2195
部长	-2196
财政	-2197
▁amount	-2198
▁participation	-2199
▁High	-2200
stitution	-2201
▁communic	-2202
▁little	-2203
▁fl	-2204
▁Pl	-2205
▁representative	-2206
▁given	-2207
▁subject	-2208
是在	-2209
委员会的	-2210
空间	-2211
izing	-2212
对于	-2213
▁might	-2214
▁Article	-2215
▁Nove	-2216
更多	-2217
▁November	-2218
真主	-2219
设施	-2220
▁dep	-2221
▁October	-2222
▁agencies	-2223
▁didn	-2224
▁undert	-2225
市场	-2226
关切	-2227
金融	-2228
▁Department	-2229
一直	-2230
hens	-2231
事项	-2232
io	-2233
以下	-2234
▁conduct	-2235
立法	-2236
的国际	-2237
▁deter	-2238
▁required	-2239
▁developed	-2240
osed	-2241
▁God	-2242
两年	-2243
building	-2244
ories	-2245
非法	-2246
▁Protocol	-2247
禁止	-2248
▁though	-2249
警察	-2250
▁El	-2251
ically	-2252
▁Me	-2253
oney	-2254
▁bodies	-2255
▁various	-2256
利益	-2257
▁Serv	-2258
▁month	-2259
▁Aff	-2260
rehens	-2261
卫生	-2262
ocratic	-2263
▁decid	-2264
ote	-2265
▁context	-2266
23	-2267
五十	-2268
监督	-2269
▁2008	-2270
ternal	-2271
表明	-2272
▁expl	-2273
变化	-2274
ually	-2275
apport	-2276
防止	-2277
▁dom	-2278
▁facilit	-2279
▁Yes	-2280
▁attention	-2281
▁whe	-2282
apporteur	-2283
规划	-2284
▁tot	-2285
▁Okay	-2286
▁found	-2287
▁Why	-2288
▁vol	-2289
▁Go	-2290
分析	-2291
一致	-2292
equ	-2293
▁Com	-2294
稳定	-2295
▁11	-2296
riend	-2297
在其	-2298
▁gen	-2299
的权利	-2300
直接	-2301
▁Ass	-2302
▁territ	-2303
▁Q	-2304
今天	-2305
ger	-2306
▁Fr	-2307
刑事	-2308
关注	-2309
▁levels	-2310
▁reform	-2311
▁Pre	-2312
ecutive	-2313
ictim	-2314
状况	-2315
▁Res	-2316
过去	-2317
use	-2318
▁above	-2319
同意	-2320
准备	-2321
呼吁	-2322
rehensive	-2323
办公	-2324
▁agreed	-2325
比亚	-2326
▁govern	-2327
会议的	-2328
保证	-2329
▁family	-2330
▁men	-2331
真的	-2332
rant	-2333
24	-2334
▁rules	-2335
▁2007	-2336
▁towards	-2337
▁different	-2338
裁军	-2339
▁Mission	-2340
▁prev	-2341
▁school	-2342
rative	-2343
ying	-2344
60	-2345
ords	-2346
▁additional	-2347
▁sustainable	-2348
▁Jan	-2349
只有	-2350
▁examp	-2351
一般	-2352
以来	-2353
▁four	-2354
ody	-2355
IV	-2356
ready	-2357
▁5.	-2358
▁arr	-2359
▁bus	-2360
▁Rapporteur	-2361
▁step	-2362
▁sel	-2363
▁secret	-2364
了解	-2365
fer	-2366
▁However	-2367
28	-2368
▁signific	-2369
增长	-2370
erg	-2371
pril	-2372
无法	-2373
▁operations	-2374
▁contained	-2375
▁requested	-2376
局势	-2377
gest	-2378
▁proper	-2379
5,	-2380
联系	-2381
目的	-2382
▁approach	-2383
土著	-2384
reg	-2385
▁Sub	-2386
收入	-2387
论坛	-2388
▁par	-2389
aring	-2390
▁statement	-2391
▁vis	-2392
oh	-2393
▁econom	-2394
▁another	-2395
经费	-2396
▁whether	-2397
一样	-2398
abor	-2399
▁mandate	-2400
首脑	-2401
asing	-2402
26	-2403
▁representatives	-2404
维持和平	-2405
▁deal	-2406
ians	-2407
发挥	-2408
▁April	-2409
▁concerning	-2410
▁bl	-2411
▁sex	-2412
特别报告员	-2413
▁success	-2414
▁pres	-2415
女士	-2416
▁bi	-2417
▁already	-2418
中国	-2419
专员	-2420
▁现在	-2421
▁believe	-2422
发达	-2423
estic	-2424
▁Peace	-2425
▁March	-2426
▁change	-2427
▁terrorism	-2428
内的	-2429
▁reas	-2430
▁entit	-2431
印度	-2432
完全	-2433
▁Affairs	-2434
itive	-2435
威胁	-2436
irm	-2437
”。	-2438
介绍	-2439
起来	-2440
▁ask	-2441
▁South	-2442
罗斯	-2443
联邦	-2444
▁requirements	-2445
考虑到	-2446
健康	-2447
▁conditions	-2448
成功	-2449
▁force	-2450
▁taking	-2451
▁best	-2452
UN	-2453
▁negot	-2454
▁contract	-2455
限制	-2456
ai	-2457
rated	-2458
▁别	-2459
phas	-2460
▁effect	-2461
▁本	-2462
ulations	-2463
▁private	-2464
AC	-2465
ward	-2466
▁population	-2467
31	-2468
受害	-2469
看到	-2470
21	-2471
▁che	-2472
▁move	-2473
▁victim	-2474
的规定	-2475
▁relating	-2476
出现	-2477
▁small	-2478
过程	-2479
▁addition	-2480
▁done	-2481
▁continued	-2482
ecially	-2483
▁authorities	-2484
ering	-2485
▁responsibility	-2486
▁Ter	-2487
▁start	-2488
▁Representative	-2489
)(	-2490
各项	-2491
ti	-2492
▁member	-2493
▁love	-2494
感谢	-2495
重新	-2496
▁没	-2497
atic	-2498
ifty	-2499
▁refl	-2500
执行情况	-2501
IN	-2502
▁serious	-2503
承认	-2504
▁See	-2505
▁police	-2506
改善	-2507
▁Li	-2508
ash	-2509
▁establishment	-2510
现有	-2511
ource	-2512
▁show	-2513
▁occup	-2514
27	-2515
知识	-2516
明确	-2517
某些	-2518
▁sim	-2519
istry	-2520
和第	-2521
为了	-2522
itation	-2523
▁called	-2524
▁addressed	-2525
条款	-2526
办公室	-2527
40	-2528
▁hold	-2529
gether	-2530
▁together	-2531
▁name	-2532
▁These	-2533
▁significant	-2534
▁perform	-2535
的一个	-2536
的所有	-2537
aced	-2538
rem	-2539
公民	-2540
eb	-2541
一份	-2542
▁achie	-2543
enous	-2544
▁Where	-2545
专门	-2546
孩子	-2547
▁la	-2548
mp	-2549
▁dest	-2550
yp	-2551
都是	-2552
针对	-2553
对话	-2554
▁doing	-2555
保障	-2556
▁Pr	-2557
我们的	-2558
▁anal	-2559
和国际	-2560
可持续发展	-2561
广泛	-2562
▁Who	-2563
▁expressed	-2564
协议	-2565
遵守	-2566
他們	-2567
ructure	-2568
▁threat	-2569
组织的	-2570
igenous	-2571
▁entitled	-2572
制订	-2573
综合	-2574
规定的	-2575
反对	-2576
▁gra	-2577
▁bo	-2578
企业	-2579
虽然	-2580
▁water	-2581
rec	-2582
especially	-2583
▁大	-2584
▁status	-2585
内容	-2586
▁Char	-2587
▁therefore	-2588
》(	-2589
visory	-2590
▁provision	-2591
▁compet	-2592
▁organization	-2593
核武器	-2594
▁Now	-2595
回顾	-2596
2,	-2597
科学	-2598
▁Ann	-2599
4,	-2600
▁Dem	-2601
联合国系统	-2602
社区	-2603
gin	-2604
▁fully	-2605
▁pursu	-2606
▁我想	-2607
▁intro	-2608
俄罗斯	-2609
业务	-2610
的重要	-2611
▁matter	-2612
▁rule	-2613
▁problem	-2614
▁why	-2615
eal	-2616
▁return	-2617
iated	-2618
▁Ab	-2619
hold	-2620
人们	-2621
ier	-2622
原因	-2623
▁Minister	-2624
▁projects	-2625
东西	-2626
▁eng	-2627
▁especially	-2628
duced	-2629
▁agreement	-2630
▁circ	-2631
reedom	-2632
view	-2633
▁took	-2634
整个	-2635
igned	-2636
▁principles	-2637
也是	-2638
千年	-2639
指导	-2640
▁obligations	-2641
星期	-2642
喜欢	-2643
uary	-2644
▁sent	-2645
相信	-2646
6/	-2647
伙伴关系	-2648
▁next	-2649
▁coordination	-2650
纳入	-2651
▁decided	-2652
审计	-2653
▁close	-2654
▁bring	-2655
ising	-2656
▁comprehensive	-2657
▁coun	-2658
▁discrimination	-2659
新闻	-2660
▁Treat	-2661
0/	-2662
人类	-2663
保留	-2664
eg	-2665
ways	-2666
▁total	-2667
加入	-2668
▁armed	-2669
▁increased	-2670
案件	-2671
IS	-2672
▁在这	-2673
文书	-2674
5/	-2675
erial	-2676
观察	-2677
isms	-2678
▁traffic	-2679
▁less	-2680
CR	-2681
▁home	-2682
9/	-2683
6,	-2684
--	-2685
基金会	-2686
IDS	-2687
总统	-2688
anel	-2689
▁Fed	-2690
to	-2691
好的	-2692
违反	-2693
▁America	-2694
▁domestic	-2695
▁deli	-2696
捐助	-2697
▁example	-2698
ialog	-2699
▁justice	-2700
▁Child	-2701
▁6.	-2702
ran	-2703
▁China	-2704
▁tar	-2705
▁Cont	-2706
关键	-2707
请求	-2708
ison	-2709
▁East	-2710
▁problems	-2711
▁business	-2712
条第	-2713
▁government	-2714
尊重	-2715
者的	-2716
▁course	-2717
▁included	-2718
但是	-2719
▁January	-2720
▁Ms	-2721
▁ca	-2722
▁Thank	-2723
▁commitment	-2724
▁free	-2725
选择	-2726
▁Acc	-2727
.,	-2728
▁around	-2729
▁criminal	-2730
work	-2731
ribun	-2732
▁terms	-2733
▁你们	-2734
▁crit	-2735
EF	-2736
多数	-2737
▁certain	-2738
▁'	-2739
采用	-2740
▁Sum	-2741
▁key	-2742
▁substant	-2743
或者	-2744
财务	-2745
▁space	-2746
危机	-2747
采取的	-2748
▁strong	-2749
准则	-2750
▁independ	-2751
▁dr	-2752
onse	-2753
上述	-2754
▁thing	-2755
▁refuge	-2756
▁received	-2757
恢复	-2758
▁什么	-2759
▁peacekeeping	-2760
举行的	-2761
▁meet	-2762
▁prof	-2763
."	-2764
组成	-2765
符合	-2766
▁One	-2767
ES	-2768
提供的	-2769
idd	-2770
的努力	-2771
一级	-2772
长期	-2773
fficult	-2774
索赔	-2775
▁behalf	-2776
适用	-2777
73	-2778
▁practices	-2779
经验	-2780
ialogue	-2781
▁light	-2782
▁proceed	-2783
▁–	-2784
alling	-2785
1/	-2786
▁kind	-2787
这么	-2788
▁所以	-2789
▁monitoring	-2790
▁systems	-2791
29	-2792
▁Are	-2793
下列	-2794
普遍	-2795
阶段	-2796
▁least	-2797
▁我的	-2798
▁Executive	-2799
▁regular	-2800
ned	-2801
的影响	-2802
▁cred	-2803
评价	-2804
▁25	-2805
提供了	-2806
▁When	-2807
▁difficult	-2808
之一	-2809
pose	-2810
的活动	-2811
ists	-2812
ently	-2813
两年期	-2814
▁arms	-2815
▁legislation	-2816
ext	-2817
语发言	-2818
▁wish	-2819
扩大	-2820
ream	-2821
▁mechanisms	-2822
因素	-2823
▁regarding	-2824
.5	-2825
▁Direct	-2826
▁common	-2827
▁inst	-2828
▁existing	-2829
▁contributions	-2830
推动	-2831
utes	-2832
ancing	-2833
▁哦	-2834
外交	-2835
结论	-2836
▁procedures	-2837
ron	-2838
▁II	-2839
▁exc	-2840
▁five	-2841
▁welcom	-2842
▁与	-2843
akes	-2844
▁feel	-2845
▁Chairman	-2846
▁standards	-2847
和社会	-2848
尤其是	-2849
▁costs	-2850
保健	-2851
▁funds	-2852
▁today	-2853
▁reporting	-2854
raft	-2855
第四	-2856
▁Car	-2857
iations	-2858
▁很	-2859
还是	-2860
和平与	-2861
他们的	-2862
ugust	-2863
▁old	-2864
▁thank	-2865
▁strengthening	-2866
占领	-2867
西亚	-2868
ev	-2869
ermanent	-2870
by	-2871
内部	-2872
全国	-2873
程度	-2874
▁net	-2875
▁investig	-2876
合同	-2877
▁Dis	-2878
▁food	-2879
▁refer	-2880
一下	-2881
▁chang	-2882
▁money	-2883
2/	-2884
▁Permanent	-2885
▁relations	-2886
阿富	-2887
orth	-2888
▁results	-2889
igin	-2890
▁event	-2891
ior	-2892
工作的	-2893
▁char	-2894
阿富汗	-2895
▁sug	-2896
▁eval	-2897
▁technology	-2898
▁我是	-2899
▁ill	-2900
stitute	-2901
duce	-2902
从而	-2903
觉得	-2904
▁assoc	-2905
解释	-2906
▁freedom	-2907
ne	-2908
▁August	-2909
▁providing	-2910
法官	-2911
管制	-2912
▁yet	-2913
▁Inform	-2914
达成	-2915
ators	-2916
经常	-2917
第十	-2918
▁23	-2919
▁看	-2920
统计	-2921
通过的	-2922
▁material	-2923
朋友	-2924
▁sure	-2925
▁adoption	-2926
助于	-2927
群体	-2928
成员国	-2929
ER	-2930
刚果	-2931
导致	-2932
▁leaders	-2933
结构	-2934
民族	-2935
不可	-2936
▁King	-2937
▁away	-2938
▁disarmament	-2939
▁happen	-2940
▁always	-2941
▁也	-2942
▁secretariat	-2943
▁000	-2944
事实	-2945
同样	-2946
员额	-2947
▁His	-2948
▁past	-2949
海洋	-2950
▁198	-2951
▁power	-2952
▁emphas	-2953
▁response	-2954
危险	-2955
▁lack	-2956
▁risk	-2957
▁protect	-2958
▁Ministry	-2959
▁personnel	-2960
▁increasing	-2961
▁large	-2962
到的	-2963
▁主席	-2964
发达国家	-2965
你們	-2966
谢谢	-2967
▁Cl	-2968
艾滋病毒	-2969
▁previous	-2970
债务	-2971
贫穷	-2972
就业	-2973
自然	-2974
面临	-2975
▁asp	-2976
▁meth	-2977
▁mission	-2978
扩散	-2979
贡献	-2980
EP	-2981
app	-2982
▁HIV	-2983
▁ess	-2984
▁Russ	-2985
倡议	-2986
宗教	-2987
定的	-2988
侵犯	-2989
▁Be	-2990
▁talk	-2991
通知	-2992
计划署	-2993
令人	-2994
活动的	-2995
aster	-2996
这项	-2997
dom	-2998
▁friend	-2999
▁然而	-3000
日本	-3001
/57	-3002
term	-3003
▁keep	-3004
▁24	-3005
▁consultations	-3006
oman	-3007
确认	-3008
aged	-3009
▁growth	-3010
illennium	-3011
▁decisions	-3012
运动	-3013
更加	-3014
not	-3015
▁po	-3016
▁suggest	-3017
▁Cons	-3018
unt	-3019
af	-3020
感到	-3021
自己的	-3022
ises	-3023
ledge	-3024
▁reported	-3025
▁要	-3026
1998	-3027
▁rat	-3028
lusion	-3029
ii	-3030
of	-3031
手段	-3032
声明	-3033
▁因为	-3034
ending	-3035
▁prevention	-3036
发现	-3037
force	-3038
▁emerg	-3039
保持	-3040
所需	-3041
ides	-3042
198	-3043
pro	-3044
的能力	-3045
▁bre	-3046
▁7.	-3047
ues	-3048
▁sever	-3049
宪法	-3050
▁night	-3051
▁Administ	-3052
▁far	-3053
▁met	-3054
▁sl	-3055
ON	-3056
风险	-3057
▁Afgh	-3058
有助于	-3059
body	-3060
▁become	-3061
▁product	-3062
▁challenges	-3063
▁Look	-3064
▁让	-3065
列入	-3066
amb	-3067
▁31	-3068
ator	-3069
▁conclud	-3070
▁Sc	-3071
abour	-3072
▁actions	-3073
▁due	-3074
▁pot	-3075
▁apprec	-3076
▁快	-3077
iatives	-3078
▁dialogue	-3079
重要的	-3080
需求	-3081
til	-3082
based	-3083
▁adequ	-3084
ici	-3085
年度	-3086
签署	-3087
情况下	-3088
▁del	-3089
ruary	-3090
首脑会议	-3091
ebruary	-3092
▁service	-3093
▁Inter	-3094
的各项	-3095
▁third	-3096
▁Bank	-3097
▁summ	-3098
来自	-3099
ifth	-3100
▁drug	-3101
▁joint	-3102
还有	-3103
▁house	-3104
▁victims	-3105
的信	-3106
▁Mar	-3107
▁UNC	-3108
ef	-3109
题为	-3110
ulture	-3111
67	-3112
▁#	-3113
土地	-3114
如此	-3115
▁acts	-3116
▁February	-3117
电话	-3118
▁22	-3119
lands	-3120
万美元	-3121
▁essential	-3122
▁arrange	-3123
不要	-3124
的情况下	-3125
权力	-3126
的建议	-3127
▁expert	-3128
资产	-3129
elines	-3130
所述	-3131
▁leave	-3132
▁Good	-3133
▁Director	-3134
mination	-3135
FF	-3136
▁我要	-3137
▁provides	-3138
va	-3139
▁several	-3140
生物	-3141
的最	-3142
给我	-3143
定期	-3144
▁Some	-3145
▁*	-3146
aid	-3147
▁26	-3148
▁cover	-3149
美洲	-3150
编写	-3151
▁needed	-3152
▁从	-3153
▁ever	-3154
ling	-3155
ging	-3156
▁conn	-3157
▁priority	-3158
来了	-3159
▁method	-3160
ither	-3161
改进	-3162
eed	-3163
apan	-3164
▁Afghan	-3165
▁initiatives	-3166
提案	-3167
▁没有	-3168
ured	-3169
▁Democratic	-3170
多边	-3171
▁8.	-3172
hing	-3173
不断	-3174
拥有	-3175
给予	-3176
▁Sw	-3177
▁target	-3178
▁adequate	-3179
▁read	-3180
▁anything	-3181
▁transfer	-3182
iter	-3183
▁While	-3184
▁whole	-3185
日在	-3186
▁mind	-3187
ribunal	-3188
▁girls	-3189
iveness	-3190
aken	-3191
▁point	-3192
unities	-3193
的法律	-3194
▁crime	-3195
▁observ	-3196
▁thought	-3197
伊斯	-3198
及社会	-3199
▁Allah	-3200
当地	-3201
atch	-3202
▁assessment	-3203
▁caus	-3204
▁Get	-3205
▁rese	-3206
▁active	-3207
aran	-3208
▁record	-3209
▁indigenous	-3210
事件	-3211
▁Advisory	-3212
提议	-3213
▁Imp	-3214
重大	-3215
/58	-3216
▁Plan	-3217
外国	-3218
▁Commissioner	-3219
规模	-3220
认识到	-3221
▁21	-3222
机构的	-3223
ably	-3224
▁however	-3225
▁ground	-3226
▁requests	-3227
▁是的	-3228
▁wee	-3229
旨在	-3230
way	-3231
▁er	-3232
▁okay	-3233
▁peoples	-3234
宪章	-3235
相互	-3236
▁position	-3237
▁partnership	-3238
重点	-3239
▁exch	-3240
3/	-3241
实体	-3242
▁broad	-3243
理由	-3244
ada	-3245
rict	-3246
▁fight	-3247
▁matters	-3248
The	-3249
▁few	-3250
▁able	-3251
▁documents	-3252
▁Millennium	-3253
▁Mal	-3254
▁analys	-3255
▁having	-3256
将在	-3257
那么	-3258
▁28	-3259
▁sorry	-3260
▁foreign	-3261
号决定	-3262
材料	-3263
▁things	-3264
▁27	-3265
现象	-3266
bs	-3267
▁trad	-3268
new	-3269
▁大会	-3270
▁strategy	-3271
个月	-3272
该国	-3273
进行的	-3274
运输	-3275
olution	-3276
法国	-3277
登记	-3278
ours	-3279
essional	-3280
raz	-3281
uty	-3282
sec	-3283
▁practice	-3284
紧急	-3285
ode	-3286
▁detail	-3287
价值	-3288
气候	-3289
▁好吧	-3290
▁♪	-3291
lam	-3292
允许	-3293
所作	-3294
国际法	-3295
▁Treaty	-3296
▁prepared	-3297
▁vote	-3298
▁procedure	-3299
▁environmental	-3300
应对	-3301
▁prim	-3302
▁speak	-3303
▁Offic	-3304
ivision	-3305
ulated	-3306
实质	-3307
gent	-3308
经济及社会	-3309
▁forces	-3310
▁discussion	-3311
▁link	-3312
伊斯兰	-3313
进行了	-3314
▁making	-3315
▁Panel	-3316
▁tas	-3317
▁dated	-3318
城市	-3319
行动计划	-3320
ense	-3321
▁hig	-3322
▁text	-3323
1)	-3324
▁和	-3325
很多	-3326
ones	-3327
mission	-3328
hib	-3329
ador	-3330
▁hope	-3331
▁potential	-3332
▁instruments	-3333
acy	-3334
▁decl	-3335
▁秘书长	-3336
▁application	-3337
angu	-3338
学校	-3339
赔偿	-3340
儿童基金会	-3341
粮食	-3342
出口	-3343
though	-3344
anda	-3345
▁final	-3346
▁Please	-3347
▁promotion	-3348
是一个	-3349
分配	-3350
行动纲	-3351
▁office	-3352
以前	-3353
战争	-3354
▁relig	-3355
AT	-3356
电子	-3357
证明	-3358
▁在这方面	-3359
selves	-3360
▁biennium	-3361
iative	-3362
▁months	-3363
▁agreements	-3364
▁另	-3365
▁Mon	-3366
网络	-3367
▁debt	-3368
一定	-3369
▁Summit	-3370
和发展	-3371
的时候	-3372
▁trafficking	-3373
的主要	-3374
▁Peop	-3375
▁cultural	-3376
▁property	-3377
来说	-3378
▁turn	-3379
▁committed	-3380
ension	-3381
▁Charter	-3382
▁objectives	-3383
▁exerc	-3384
▁recommended	-3385
▁live	-3386
uted	-3387
▁Add	-3388
发展目标	-3389
后续	-3390
ICEF	-3391
▁please	-3392
▁fail	-3393
▁Under	-3394
▁equality	-3395
反映	-3396
▁left	-3397
▁Other	-3398
▁institution	-3399
的方式	-3400
▁research	-3401
,《	-3402
ng	-3403
再次	-3404
农业	-3405
宣布	-3406
▁treaty	-3407
%。	-3408
残疾	-3409
▁为了	-3410
sc	-3411
▁Trans	-3412
贩运	-3413
AIDS	-3414
▁Japan	-3415
istics	-3416
▁Europe	-3417
缺乏	-3418
六十	-3419
各方	-3420
▁US	-3421
▁Territ	-3422
▁Kingdom	-3423
▁investment	-3424
高级专员	-3425
▁forward	-3426
▁responsible	-3427
全体	-3428
财产	-3429
▁9.	-3430
▁age	-3431
▁self	-3432
做出	-3433
▁Cr	-3434
oper	-3435
▁living	-3436
方案的	-3437
经济及社会理事会	-3438
通过了	-3439
▁1999	-3440
▁Stat	-3441
▁section	-3442
▁writ	-3443
▁cannot	-3444
▁greater	-3445
▁mig	-3446
▁tru	-3447
▁enhance	-3448
今后	-3449
▁until	-3450
▁date	-3451
▁days	-3452
▁你是	-3453
rain	-3454
拟订	-3455
民间	-3456
▁fav	-3457
▁proposals	-3458
并在	-3459
纽约	-3460
▁fifty	-3461
▁others	-3462
▁Service	-3463
常驻	-3464
▁Agree	-3465
▁purpose	-3466
加拿	-3467
离开	-3468
erson	-3469
isis	-3470
▁York	-3471
▁statements	-3472
加以	-3473
欧洲联盟	-3474
▁univers	-3475
本国	-3476
struction	-3477
构成	-3478
ergy	-3479
▁stress	-3480
DC	-3481
这里	-3482
宣传	-3483
访问	-3484
▁UNDP	-3485
▁attack	-3486
为什么	-3487
rought	-3488
▁involved	-3489
AR	-3490
改变	-3491
▁Em	-3492
不知道	-3493
▁promoting	-3494
境内	-3495
▁norm	-3496
▁reason	-3497
▁camp	-3498
55	-3499
▁outs	-3500
ta	-3501
ury	-3502
▁Agenda	-3503
▁steps	-3504
落实	-3505
ik	-3506
rel	-3507
ests	-3508
70	-3509
▁由于	-3510
▁Par	-3511
▁consist	-3512
▁contain	-3513
▁recon	-3514
▁body	-3515
女孩	-3516
▁market	-3517
▁Bel	-3518
;(	-3519
▁death	-3520
指标	-3521
ipment	-3522
ticles	-3523
▁short	-3524
补充	-3525
ached	-3526
▁aimed	-3527
▁Information	-3528
▁Qu	-3529
▁treatment	-3530
▁Your	-3531
最不	-3532
王国	-3533
进入	-3534
zer	-3535
oke	-3536
▁host	-3537
ording	-3538
加拿大	-3539
并不	-3540
▁early	-3541
2)	-3542
anced	-3543
▁told	-3544
ilar	-3545
.”	-3546
▁mor	-3547
eneva	-3548
创造	-3549
若干	-3550
各国政府	-3551
▁knowledge	-3552
了一个	-3553
支付	-3554
▁loss	-3555
▁contribute	-3556
下午	-3557
▁Fore	-3558
amental	-3559
▁Meeting	-3560
ipl	-3561
▁Tur	-3562
▁Aust	-3563
▁hear	-3564
不得	-3565
▁通过	-3566
▁job	-3567
▁thus	-3568
▁energy	-3569
工具	-3570
uations	-3571
▁funding	-3572
所载	-3573
敦促	-3574
fficient	-3575
▁Further	-3576
▁elimin	-3577
▁missions	-3578
苏丹	-3579
fact	-3580
▁team	-3581
▁respond	-3582
augh	-3583
▁而	-3584
ops	-3585
取得的	-3586
▁又	-3587
专业	-3588
科索	-3589
开发计划署	-3590
▁Coven	-3591
享有	-3592
邀请	-3593
▁10.	-3594
▁natural	-3595
找到	-3596
vere	-3597
▁letter	-3598
▁facilitate	-3599
来源	-3600
科索沃	-3601
▁run	-3602
▁reserv	-3603
估计	-3604
里亚	-3605
▁indust	-3606
AN	-3607
能源	-3608
itiz	-3609
▁laws	-3610
▁nothing	-3611
十年	-3612
▁Comp	-3613
平民	-3614
▁By	-3615
▁sk	-3616
组织和	-3617
召开	-3618
▁exam	-3619
▁wrong	-3620
▁Congo	-3621
▁Israeli	-3622
死亡	-3623
rast	-3624
▁Ser	-3625
竞争	-3626
非正式	-3627
▁principle	-3628
▁administrative	-3629
困难	-3630
ien	-3631
▁forms	-3632
表决	-3633
▁App	-3634
▁estim	-3635
▁understanding	-3636
对妇女	-3637
abilities	-3638
▁reduction	-3639
▁上	-3640
申请	-3641
▁--	-3642
▁29	-3643
alls	-3644
▁bal	-3645
▁Tribunal	-3646
筹备	-3647
▁opportunity	-3648
下的	-3649
实行	-3650
授权	-3651
▁tre	-3652
▁compan	-3653
▁mother	-3654
▁proposal	-3655
日内	-3656
▁pursuant	-3657
▁questions	-3658
德国	-3659
▁pass	-3660
▁air	-3661
▁dam	-3662
▁big	-3663
成立	-3664
▁Asia	-3665
▁begin	-3666
▁Cor	-3667
▁dev	-3668
▁employment	-3669
属于	-3670
▁goals	-3671
▁Division	-3672
我国	-3673
贫困	-3674
arters	-3675
承担	-3676
▁rac	-3677
▁Geneva	-3678
ipp	-3679
more	-3680
olid	-3681
▁annual	-3682
▁income	-3683
▁等	-3684
水平	-3685
ensus	-3686
.9	-3687
修正	-3688
政府间	-3689
▁wait	-3690
HR	-3691
▁把	-3692
mediate	-3693
意思	-3694
icit	-3695
▁planning	-3696
▁violations	-3697
损失	-3698
那个	-3699
▁ele	-3700
ese	-3701
▁implementing	-3702
▁来	-3703
▁1,	-3704
▁Head	-3705
▁approved	-3706
▁strategies	-3707
ton	-3708
▁pat	-3709
▁desc	-3710
精神	-3711
次会议上	-3712
▁stop	-3713
▁langu	-3714
▁plans	-3715
必要的	-3716
▁offic	-3717
▁coming	-3718
▁Central	-3719
▁嘿	-3720
协会	-3721
官员	-3722
▁typ	-3723
level	-3724
▁disp	-3725
▁chap	-3726
▁building	-3727
发表	-3728
▁seen	-3729
议会	-3730
▁fundamental	-3731
农村	-3732
那样	-3733
日内瓦	-3734
▁carry	-3735
▁won	-3736
主管	-3737
公开	-3738
▁Non	-3739
▁Annex	-3740
了一	-3741
古巴	-3742
bit	-3743
受害者	-3744
1997	-3745
▁Trade	-3746
▁nature	-3747
▁Russian	-3748
▁尽管	-3749
▁equal	-3750
▁Som	-3751
▁young	-3752
▁crisis	-3753
63	-3754
失所	-3755
流离	-3756
▁top	-3757
enty	-3758
▁exchange	-3759
▁undertaken	-3760
马里	-3761
▁basic	-3762
。”	-3763
采购	-3764
▁multilateral	-3765
▁pap	-3766
贸发	-3767
▁Did	-3768
▁bank	-3769
▁rate	-3770
areness	-3771
▁Covenant	-3772
私营	-3773
编制	-3774
▁lear	-3775
▁Forum	-3776
职能	-3777
那里	-3778
arante	-3779
ung	-3780
▁Col	-3781
流离失所	-3782
▁often	-3783
了吗	-3784
oot	-3785
▁experts	-3786
ilization	-3787
总部	-3788
ler	-3789
▁dead	-3790
▁harm	-3791
▁阿	-3792
▁不过	-3793
ograph	-3794
▁supported	-3795
▁除	-3796
有人	-3797
TAD	-3798
▁maintain	-3799
不仅	-3800
密切	-3801
维持和平行动	-3802
▁operational	-3803
▁Agreement	-3804
拟议	-3805
uel	-3806
udit	-3807
DA	-3808
most	-3809
毒品	-3810
35	-3811
的任何	-3812
▁Recalling	-3813
少数	-3814
▁rein	-3815
liance	-3816
▁technolog	-3817
步骤	-3818
破坏	-3819
going	-3820
GO	-3821
▁ver	-3822
举办	-3823
传统	-3824
▁expected	-3825
尚未	-3826
真正	-3827
证据	-3828
▁once	-3829
民主共和国	-3830
▁immediate	-3831
▁transport	-3832
▁issued	-3833
▁abs	-3834
▁Then	-3835
▁study	-3836
▁demand	-3837
▁origin	-3838
收到	-3839
▁negotiations	-3840
90	-3841
的话	-3842
条例	-3843
而言	-3844
▁san	-3845
▁displ	-3846
基于	-3847
▁poin	-3848
▁stay	-3849
以英	-3850
▁最后	-3851
咨询委员会	-3852
▁aspects	-3853
▁limited	-3854
▁organized	-3855
自愿	-3856
eria	-3857
ferences	-3858
▁Criminal	-3859
▁respective	-3860
▁可	-3861
性和	-3862
辩论	-3863
▁谢谢	-3864
ventions	-3865
▁Coordin	-3866
%,	-3867
的目标	-3868
▁enj	-3869
ulner	-3870
▁German	-3871
▁Global	-3872
4/	-3873
大学	-3874
担任	-3875
▁kid	-3876
▁hard	-3877
45	-3878
的其他	-3879
不起	-3880
▁Techn	-3881
▁production	-3882
公平	-3883
巴嫩	-3884
黎巴嫩	-3885
▁sett	-3886
iction	-3887
▁More	-3888
未来	-3889
行动纲领	-3890
▁carried	-3891
▁performance	-3892
交流	-3893
ico	-3894
ring	-3895
▁ensuring	-3896
▁currently	-3897
▁recommendation	-3898
调整	-3899
▁我知道	-3900
▁arrangements	-3901
十分	-3902
森林	-3903
▁11.	-3904
▁accept	-3905
统一	-3906
▁50	-3907
rief	-3908
满足	-3909
ored	-3910
帝汶	-3911
▁equipment	-3912
劳动	-3913
iddle	-3914
▁First	-3915
▁contribution	-3916
▁sexual	-3917
检查	-3918
▁complete	-3919
udan	-3920
▁notes	-3921
▁network	-3922
reme	-3923
▁doll	-3924
▁stated	-3925
修订	-3926
的作用	-3927
OP	-3928
透明	-3929
iferation	-3930
▁financing	-3931
给你	-3932
▁Centre	-3933
▁Environment	-3934
以英语发言	-3935
▁guarante	-3936
两性	-3937
过渡	-3938
omb	-3939
▁remains	-3940
37	-3941
决策	-3942
鉴于	-3943
quarters	-3944
▁delegations	-3945
三个	-3946
化学	-3947
转让	-3948
val	-3949
▁experience	-3950
▁communication	-3951
交易	-3952
移民	-3953
▁Ro	-3954
武装冲突	-3955
▁came	-3956
伊朗	-3957
案文	-3958
ched	-3959
▁design	-3960
▁awareness	-3961
▁你知道	-3962
▁2001,	-3963
▁According	-3964
oid	-3965
社会和	-3966
▁identify	-3967
▁opportunities	-3968
亿美元	-3969
▁territory	-3970
tt	-3971
的经济	-3972
ires	-3973
▁manner	-3974
▁evidence	-3975
▁participate	-3976
▁compl	-3977
▁Afghanistan	-3978
izes	-3979
▁pun	-3980
▁claims	-3981
▁hon	-3982
▁concerns	-3983
班牙	-3984
会议上	-3985
和技术	-3986
西班牙	-3987
just	-3988
▁affected	-3989
▁recognized	-3990
ana	-3991
▁Requ	-3992
▁Review	-3993
▁vulner	-3994
▁collabor	-3995
我們	-3996
首先	-3997
▁offices	-3998
▁strategic	-3999
▁share	-4000
▁employ	-4001
▁economy	-4002
▁不是	-4003
▁lot	-4004
其中包括	-4005
▁implemented	-4006
▁国际	-4007
范围内	-4008
的基础	-4009
▁soon	-4010
▁alleg	-4011
▁itself	-4012
▁positive	-4013
lementation	-4014
co	-4015
在这里	-4016
▁suff	-4017
▁distrib	-4018
▁Ed	-4019
▁line	-4020
isional	-4021
▁Cooperation	-4022
-20	-4023
▁communities	-4024
▁2002,	-4025
▁guidelines	-4026
》。	-4027
人数	-4028
罪行	-4029
▁analysis	-4030
体制	-4031
eter	-4032
地注意到	-4033
▁cooper	-4034
的决定	-4035
▁mom	-4036
▁room	-4037
▁2003,	-4038
▁grant	-4039
担保	-4040
至少	-4041
▁fulf	-4042
▁brought	-4043
▁connection	-4044
核心	-4045
身份	-4046
▁else	-4047
▁below	-4048
AS	-4049
▁然后	-4050
▁eas	-4051
设备	-4052
www	-4053
erous	-4054
▁combat	-4055
避免	-4056
高兴	-4057
▁mechanism	-4058
医疗	-4059
愿意	-4060
▁Bur	-4061
▁Leban	-4062
▁consequ	-4063
人和	-4064
▁bu	-4065
▁rural	-4066
▁referred	-4067
▁refugees	-4068
特殊	-4069
部署	-4070
人权委员会	-4071
........	-4072
▁enforce	-4073
▁overall	-4074
ibilities	-4075
iqu	-4076
亚洲	-4077
▁face	-4078
orn	-4079
▁虽然	-4080
▁mob	-4081
采取行动	-4082
▁Countr	-4083
维亚	-4084
工业	-4085
甚至	-4086
观点	-4087
cont	-4088
▁provisional	-4089
racy	-4090
▁miss	-4091
▁见	-4092
essions	-4093
▁这个	-4094
ination	-4095
ishment	-4096
▁commitments	-4097
供应	-4098
达到	-4099
uris	-4100
▁sep	-4101
▁Sudan	-4102
不扩散	-4103
专题	-4104
ama	-4105
▁low	-4106
妇女和	-4107
观察员	-4108
▁People	-4109
▁UNCTAD	-4110
商业	-4111
明白	-4112
赞赏	-4113
unic	-4114
▁posts	-4115
▁UNICEF	-4116
▁circum	-4117
iscrimination	-4118
49	-4119
men	-4120
▁还有	-4121
▁X	-4122
teg	-4123
2009	-4124
aches	-4125
▁小	-4126
青年	-4127
▁seem	-4128
东帝汶	-4129
▁12.	-4130
损害	-4131
▁一个	-4132
▁During	-4133
48	-4134
57	-4135
▁enjoy	-4136
▁outcome	-4137
▁articles	-4138
▁processes	-4139
▁Federation	-4140
▁everything	-4141
ya	-4142
大量	-4143
小组委员会	-4144
▁真	-4145
▁functions	-4146
她们	-4147
维护	-4148
详细	-4149
hem	-4150
▁Crime	-4151
enth	-4152
▁Here	-4153
酷刑	-4154
的各种	-4155
▁enough	-4156
▁conference	-4157
意义	-4158
▁Leg	-4159
▁deep	-4160
ucking	-4161
▁counter	-4162
公正	-4163
移徙	-4164
ins	-4165
▁press	-4166
每个	-4167
▁id	-4168
有效的	-4169
▁authority	-4170
▁reference	-4171
出版	-4172
支出	-4173
的主	-4174
stances	-4175
什麼	-4176
超过	-4177
▁Cub	-4178
▁later	-4179
▁再	-4180
▁assets	-4181
质量	-4182
力的	-4183
▁according	-4184
▁independent	-4185
-3	-4186
58	-4187
答复	-4188
endit	-4189
▁poor	-4190
▁calls	-4191
▁Justice	-4192
▁terrorist	-4193
AL	-4194
产品	-4195
才能	-4196
▁Net	-4197
▁benefits	-4198
予以	-4199
▁2005,	-4200
ha	-4201
墨西	-4202
▁cust	-4203
▁2000,	-4204
▁former	-4205
▁Supp	-4206
▁laun	-4207
▁value	-4208
aragraph	-4209
▁alia	-4210
itizens	-4211
工程	-4212
联合王国	-4213
出席	-4214
显示	-4215
rad	-4216
墨西哥	-4217
目的是	-4218
ecting	-4219
▁except	-4220
通信	-4221
▁court	-4222
related	-4223
▁Second	-4224
▁2004,	-4225
▁transp	-4226
一名	-4227
▁repl	-4228
▁father	-4229
欧盟	-4230
▁climate	-4231
▁Her	-4232
▁guy	-4233
venth	-4234
▁workers	-4235
untary	-4236
▁exercise	-4237
合法	-4238
寻求	-4239
▁lo	-4240
▁sing	-4241
▁Lat	-4242
▁bad	-4243
▁individuals	-4244
▁Constitution	-4245
住房	-4246
▁Implementation	-4247
和保护	-4248
的任务	-4249
▁Wel	-4250
▁infrast	-4251
的发展	-4252
▁belie	-4253
ude	-4254
职业	-4255
aries	-4256
▁Canada	-4257
▁achieved	-4258
▁successful	-4259
立即	-4260
机构和	-4261
cent	-4262
和平与安全	-4263
▁Sy	-4264
▁Univers	-4265
重视	-4266
iting	-4267
▁asked	-4268
Ch	-4269
▁Tim	-4270
▁effectively	-4271
▁mass	-4272
▁rather	-4273
.10	-4274
任命	-4275
▁guys	-4276
orture	-4277
▁.	-4278
▁{	-4279
最高	-4280
arent	-4281
▁evaluation	-4282
▁听	-4283
会者	-4284
的不	-4285
▁Also	-4286
▁Lord	-4287
▁fuck	-4288
▁Since	-4289
▁informed	-4290
▁substantive	-4291
PA	-4292
ourth	-4293
▁export	-4294
刚果民主共和国	-4295
名单	-4296
▁怎么	-4297
light	-4298
▁2006,	-4299
ruction	-4300
hab	-4301
▁heard	-4302
▁officials	-4303
▁Iran	-4304
▁themselves	-4305
依照	-4306
▁apply	-4307
第二十	-4308
rorism	-4309
▁famil	-4310
最不发达国家	-4311
ateg	-4312
▁appl	-4313
▁recommends	-4314
▁function	-4315
▁facilities	-4316
也不	-4317
▁!	-4318
性质	-4319
提出了	-4320
▁Kore	-4321
千年发展目标	-4322
药物	-4323
▁Great	-4324
▁enter	-4325
迅速	-4326
不到	-4327
核准	-4328
遭受	-4329
▁这一	-4330
▁France	-4331
▁outside	-4332
.6	-4333
地点	-4334
▁Tw	-4335
arth	-4336
▁Per	-4337
▁rap	-4338
▁Islam	-4339
▁worksh	-4340
理解	-4341
33	-4342
uw	-4343
▁hist	-4344
PR	-4345
urement	-4346
▁identified	-4347
报告的	-4348
imum	-4349
报告中	-4350
ientific	-4351
77	-4352
管辖	-4353
▁这种	-4354
▁Party	-4355
EC	-4356
从事	-4357
是个	-4358
▁susp	-4359
▁entities	-4360
uh	-4361
▁brief	-4362
申诉	-4363
政策和	-4364
▁mention	-4365
▁appreciation	-4366
传播	-4367
过程中	-4368
poses	-4369
在哪	-4370
妈妈	-4371
lia	-4372
▁juris	-4373
▁paragraphs	-4374
清楚	-4375
▁col	-4376
▁Civil	-4377
▁build	-4378
▁Management	-4379
▁sy	-4380
加勒	-4381
团体	-4382
历史	-4383
▁Ge	-4384
▁我会	-4385
气候变化	-4386
▁Public	-4387
▁regions	-4388
主任	-4389
con	-4390
order	-4391
▁crimes	-4392
▁?	-4393
反应	-4394
atis	-4395
aps	-4396
____	-4397
▁eth	-4398
rench	-4399
▁primary	-4400
▁defin	-4401
▁Assist	-4402
▁Protection	-4403
ites	-4404
rial	-4405
▁whose	-4406
劳工	-4407
多样	-4408
民间社会	-4409
▁不要	-4410
想要	-4411
▁quality	-4412
OS	-4413
▁items	-4414
▁involve	-4415
▁purposes	-4416
▁governance	-4417
▁Every	-4418
▁alloc	-4419
▁debate	-4420
▁13.	-4421
▁complain	-4422
收集	-4423
▁ce	-4424
▁demon	-4425
▁Foreign	-4426
▁integrated	-4427
有利	-4428
行使	-4429
▁tem	-4430
▁preparation	-4431
▁Inv	-4432
▁opin	-4433
人力	-4434
律师	-4435
oon	-4436
▁Kos	-4437
▁either	-4438
▁situations	-4439
▁views	-4440
众国	-4441
威特	-4442
有权	-4443
nic	-4444
的信息	-4445
▁doesn	-4446
让我	-4447
ttp	-4448
comm	-4449
▁ways	-4450
▁circumstances	-4451
数量	-4452
男女	-4453
这类	-4454
osp	-4455
第五十	-4456
▁Health	-4457
▁objective	-4458
//	-4459
▁Ph	-4460
科威特	-4461
▁Institute	-4462
生效	-4463
▁wanted	-4464
44	-4465
ple	-4466
加勒比	-4467
▁informal	-4468
▁Children	-4469
▁institutional	-4470
▁American	-4471
顾问	-4472
ends	-4473
ruption	-4474
▁enable	-4475
▁stability	-4476
审判	-4477
讲习	-4478
最终	-4479
根本	-4480
计算	-4481
Rev	-4482
实质性	-4483
enal	-4484
▁100	-4485
▁elements	-4486
://	-4487
▁presented	-4488
我要	-4489
提到	-4490
ovo	-4491
大多数	-4492
的行为	-4493
wing	-4494
概念	-4495
障碍	-4496
▁Op	-4497
适用于	-4498
▁Such	-4499
▁infrastructure	-4500
如下	-4501
▁mut	-4502
资助	-4503
ows	-4504
orpor	-4505
▁reaff	-4506
的资料	-4507
▁cho	-4508
▁regist	-4509
巴西	-4510
▁tool	-4511
▁Draft	-4512
▁Agency	-4513
ica	-4514
▁你的	-4515
能力建设	-4516
此种	-4517
▁agric	-4518
▁altern	-4519
▁Requests	-4520
▁expendit	-4521
ustainable	-4522
清单	-4523
▁60	-4524
▁emb	-4525
▁goods	-4526
▁ongoing	-4527
检察	-4528
适当的	-4529
运作	-4530
100	-4531
贸发会议	-4532
灾害	-4533
ibb	-4534
▁indicated	-4535
▁initiative	-4536
,“	-4537
力量	-4538
唯一	-4539
国民	-4540
高级别	-4541
uwait	-4542
打算	-4543
▁reach	-4544
▁benefit	-4545
▁ago	-4546
▁Strate	-4547
▁encourage	-4548
56	-4549
▁Section	-4550
爸爸	-4551
的重要性	-4552
对其	-4553
捐款	-4554
alk	-4555
▁compliance	-4556
EA	-4557
IT	-4558
▁Mex	-4559
illeg	-4560
▁demonst	-4561
▁peaceful	-4562
EN	-4563
fs	-4564
旺达	-4565
put	-4566
▁40	-4567
▁ut	-4568
▁Any	-4569
▁imm	-4570
塞尔	-4571
有些	-4572
起诉	-4573
▁fr	-4574
两性平等	-4575
struct	-4576
▁critical	-4577
机关	-4578
货币	-4579
▁week	-4580
Un	-4581
拘留	-4582
生命	-4583
comes	-4584
的行动	-4585
和联合国	-4586
ronic	-4587
▁Exper	-4588
▁civilian	-4589
▁嗯	-4590
▁TH	-4591
▁India	-4592
▁amend	-4593
▁obser	-4594
▁去	-4595
▁2007,	-4596
▁trust	-4597
干事	-4598
筹资	-4599
1996	-4600
▁woman	-4601
▁safety	-4602
▁changes	-4603
卢旺达	-4604
造成的	-4605
儿童权利	-4606
▁internal	-4607
▁prohib	-4608
51	-4609
▁z	-4610
所涉	-4611
此类	-4612
▁sir	-4613
enary	-4614
▁reduce	-4615
▁Kosovo	-4616
▁14.	-4617
▁acce	-4618
▁fucking	-4619
▁conducted	-4620
其它	-4621
▁times	-4622
▁labour	-4623
致力	-4624
▁为什么	-4625
▁categ	-4626
▁higher	-4627
▁obligation	-4628
一点	-4629
▁注意到	-4630
货物	-4631
讲习班	-4632
▁subs	-4633
▁minor	-4634
▁using	-4635
▁throughout	-4636
▁将	-4637
▁hours	-4638
做的	-4639
▁第二	-4640
个国家	-4641
year	-4642
istic	-4643
▁illeg	-4644
liament	-4645
▁capital	-4646
▁compens	-4647
▁similar	-4648
sw	-4649
aving	-4650
定义	-4651
每年	-4652
ery	-4653
▁test	-4654
lications	-4655
出来	-4656
媒体	-4657
▁Of	-4658
▁inn	-4659
私营部门	-4660
▁conflicts	-4661
原子	-4662
停止	-4663
叙利亚	-4664
有必要	-4665
只要	-4666
女性	-4667
好了	-4668
委会	-4669
训练	-4670
▁Sal	-4671
▁bit	-4672
▁Unit	-4673
making	-4674
▁avoid	-4675
▁words	-4676
后果	-4677
line	-4678
▁welcome	-4679
▁自	-4680
verse	-4681
ees	-4682
ij	-4683
分子	-4684
双方	-4685
复杂	-4686
1995	-4687
itness	-4688
▁compon	-4689
▁effects	-4690
▁sessions	-4691
▁這	-4692
以为	-4693
类似	-4694
ames	-4695
▁opt	-4696
▁half	-4697
▁term	-4698
ibbean	-4699
▁incorpor	-4700
▁effectiveness	-4701
腐败	-4702
基础设施	-4703
▁wide	-4704
▁proceedings	-4705
当事	-4706
来越	-4707
▁judicial	-4708
抱歉	-4709
urs	-4710
apon	-4711
▁West	-4712
大利	-4713
立场	-4714
人权和	-4715
mbass	-4716
▁resource	-4717
比例	-4718
key	-4719
特别代表	-4720
ector	-4721
▁priorities	-4722
预期	-4723
esc	-4724
umb	-4725
hern	-4726
▁dollars	-4727
▁integration	-4728
my	-4729
土耳	-4730
效率	-4731
优先事项	-4732
▁dang	-4733
依据	-4734
合理	-4735
将其	-4736
土耳其	-4737
▁continues	-4738
▁enforcement	-4739
之外	-4740
▁Ma	-4741
在这方面	-4742
▁hell	-4743
ducing	-4744
▁operation	-4745
中东	-4746
rary	-4747
后续行动	-4748
▁hous	-4749
▁Political	-4750
居民	-4751
系列	-4752
▁Joh	-4753
▁NGO	-4754
▁developments	-4755
vey	-4756
越来越	-4757
▁happened	-4758
另一	-4759
更好	-4760
▁所有	-4761
ature	-4762
▁Oper	-4763
▁Force	-4764
▁media	-4765
▁create	-4766
单位	-4767
地区的	-4768
irms	-4769
的一部分	-4770
▁accom	-4771
▁administration	-4772
▁sw	-4773
ening	-4774
▁sources	-4775
发出	-4776
rants	-4777
▁Caribbean	-4778
▁den	-4779
▁central	-4780
▁destruction	-4781
59	-4782
磋商	-4783
▁determin	-4784
3)	-4785
62	-4786
▁IC	-4787
妇女的	-4788
本身	-4789
至关	-4790
是什么	-4791
▁Bec	-4792
人权事务	-4793
▁Liber	-4794
ny	-4795
全部	-4796
第五	-4797
orrow	-4798
▁1998	-4799
▁conv	-4800
双边	-4801
意识	-4802
领导人	-4803
▁Code	-4804
▁table	-4805
妈的	-4806
▁ve	-4807
standing	-4808
肯定	-4809
▁当然	-4810
索马里	-4811
ersons	-4812
▁Countries	-4813
iet	-4814
意大利	-4815
▁revised	-4816
待遇	-4817
oph	-4818
▁Brit	-4819
▁Kuwait	-4820
▁prison	-4821
▁Germany	-4822
足够	-4823
▁killed	-4824
▁late	-4825
▁side	-4826
▁citizens	-4827
重建	-4828
arc	-4829
ued	-4830
▁回顾	-4831
以确保	-4832
acific	-4833
▁twenty	-4834
▁concept	-4835
拒绝	-4836
看看	-4837
ensive	-4838
▁Korea	-4839
▁heart	-4840
▁expand	-4841
▁experi	-4842
▁medical	-4843
▁Regional	-4844
▁relationship	-4845
的一些	-4846
▁rates	-4847
▁activity	-4848
▁structure	-4849
/59	-4850
▁目前	-4851
▁subsequ	-4852
▁remember	-4853
34	-4854
arily	-4855
趋势	-4856
adic	-4857
aly	-4858
▁会议	-4859
▁Rel	-4860
▁dou	-4861
ulate	-4862
▁安全理事会	-4863
国际公约	-4864
ocracy	-4865
▁jurisd	-4866
▁consolid	-4867
▁continuing	-4868
38	-4869
过来	-4870
▁2,	-4871
mark	-4872
成本	-4873
而不是	-4874
▁bar	-4875
▁cross	-4876
▁Support	-4877
▁discussions	-4878
世纪	-4879
保险	-4880
增强	-4881
有限	-4882
▁flo	-4883
▁separ	-4884
不足	-4885
走了	-4886
know	-4887
▁explo	-4888
ris	-4889
▁prec	-4890
▁trying	-4891
39	-4892
▁同	-4893
▁invited	-4894
分发	-4895
担心	-4896
数字	-4897
▁extent	-4898
▁sectors	-4899
▁Our	-4900
▁mess	-4901
俄罗斯联邦	-4902
▁satis	-4903
▁appoint	-4904
▁interests	-4905
就会	-4906
引起	-4907
ony	-4908
与发展	-4909
secut	-4910
无论	-4911
razil	-4912
▁acqu	-4913
说的	-4914
▁achieving	-4915
心理	-4916
lish	-4917
pted	-4918
▁Mor	-4919
▁aid	-4920
▁cop	-4921
▁went	-4922
▁communications	-4923
OM	-4924
制裁	-4925
及时	-4926
empt	-4927
yond	-4928
持久	-4929
emin	-4930
head	-4931
▁fine	-4932
▁Services	-4933
▁comments	-4934
▁families	-4935
IL	-4936
公众	-4937
▁好的	-4938
▁Eng	-4939
person	-4940
▁French	-4941
▁regime	-4942
▁technologies	-4943
ume	-4944
▁Bar	-4945
▁Those	-4946
伤害	-4947
▁alone	-4948
在第	-4949
where	-4950
▁join	-4951
▁paid	-4952
▁scope	-4953
▁conven	-4954
▁]	-4955
吁请	-4956
更多的	-4957
▁cru	-4958
first	-4959
iable	-4960
▁instrument	-4961
罗马	-4962
▁associated	-4963
▁正	-4964
通报	-4965
/60	-4966
grad	-4967
acter	-4968
▁improving	-4969
-4	-4970
54	-4971
修改	-4972
▁Cuba	-4973
▁lost	-4974
巴基	-4975
ades	-4976
▁along	-4977
▁officers	-4978
▁welcomed	-4979
地雷	-4980
她的	-4981
提及	-4982
行为的	-4983
part	-4984
▁interp	-4985
南非	-4986
大规模	-4987
read	-4988
▁eight	-4989
▁describ	-4990
▁opinion	-4991
享受	-4992
阿尔	-4993
rian	-4994
▁recru	-4995
▁displaced	-4996
ST	-4997
▁而且	-4998
有可能	-4999
的项目	-5000
rist	-5001
▁III	-5002
▁true	-5003
.4/200	-5004
holders	-5005
的合作	-5006
▁stake	-5007
▁created	-5008
▁looking	-5009
澳大	-5010
职责	-5011
▁55	-5012
巴基斯坦	-5013
澳大利亚	-5014
▁fire	-5015
▁treaties	-5016
▁elections	-5017
▁Dar	-5018
▁sal	-5019
mine	-5020
▁rad	-5021
通常	-5022
▁例如	-5023
这一点	-5024
▁phys	-5025
缔约方会议	-5026
▁participants	-5027
cell	-5028
▁visit	-5029
是我	-5030
▁fig	-5031
国家和	-5032
▁boy	-5033
▁infl	-5034
▁range	-5035
▁introduced	-5036
III	-5037
aign	-5038
wise	-5039
porary	-5040
▁paper	-5041
▁sufficient	-5042
人在	-5043
致力于	-5044
manent	-5045
以后	-5046
学生	-5047
▁gener	-5048
▁consensus	-5049
▁Sustainable	-5050
拉夫	-5051
的新	-5052
itable	-5053
这样的	-5054
意味	-5055
原子能	-5056
▁shit	-5057
61	-5058
似乎	-5059
2001)	-5060
▁Mexico	-5061
作了	-5062
▁Middle	-5063
感觉	-5064
的安全	-5065
的执行情况	-5066
▁signed	-5067
下来	-5068
回来	-5069
爱尔	-5070
飞机	-5071
rew	-5072
▁reached	-5073
指控	-5074
攻击	-5075
视为	-5076
爱尔兰	-5077
▁abuse	-5078
▁establishing	-5079
▁regulations	-5080
全球化	-5081
▁vot	-5082
irmed	-5083
▁reiter	-5084
▁advance	-5085
▁universal	-5086
特设	-5087
▁Six	-5088
种族歧视	-5089
▁Somal	-5090
出去	-5091
塞拉	-5092
日益	-5093
有所	-5094
诉讼	-5095
▁illicit	-5096
▁bilateral	-5097
lav	-5098
AM	-5099
好吗	-5100
▁ple	-5101
▁credit	-5102
福利	-5103
aby	-5104
的政治	-5105
ills	-5106
▁lives	-5107
▁professional	-5108
分别	-5109
事规则	-5110
▁wid	-5111
▁transmit	-5112
日星期	-5113
的要求	-5114
▁fair	-5115
▁议程项目	-5116
ane	-5117
的代表	-5118
▁三	-5119
切实	-5120
日期	-5121
lex	-5122
▁Out	-5123
orthern	-5124
pet	-5125
的机会	-5126
技术援助	-5127
▁near	-5128
▁Discrimination	-5129
为此	-5130
方案和	-5131
anna	-5132
iles	-5133
建设和平	-5134
▁indicators	-5135
仲裁	-5136
▁欢迎	-5137
▁2008,	-5138
▁specialized	-5139
/56	-5140
▁cal	-5141
▁idea	-5142
▁ready	-5143
▁entire	-5144
▁centres	-5145
医生	-5146
▁你要	-5147
▁try	-5148
▁Third	-5149
▁subreg	-5150
▁如	-5151
▁settlement	-5152
yl	-5153
和执行	-5154
roll	-5155
▁bur	-5156
▁son	-5157
▁eradic	-5158
.7	-5159
美利	-5160
▁15.	-5161
▁如果你	-5162
United	-5163
▁break	-5164
▁creation	-5165
几乎	-5166
的一项	-5167
记得	-5168
▁fa	-5169
wide	-5170
▁UNM	-5171
-2005	-5172
▁contact	-5173
▁actually	-5174
有一	-5175
美利坚	-5176
▁18.	-5177
▁safe	-5178
isters	-5179
▁adopt	-5180
▁trial	-5181
tenance	-5182
爱的	-5183
人口基金	-5184
▁witness	-5185
在一起	-5186
reland	-5187
CP	-5188
投票	-5189
▁Int	-5190
提交的	-5191
▁2009	-5192
OR	-5193
儿童的	-5194
1990	-5195
▁saw	-5196
▁upd	-5197
▁Form	-5198
▁parts	-5199
▁Islamic	-5200
▁plenary	-5201
roliferation	-5202
fn	-5203
/55	-5204
▁重申	-5205
专家组	-5206
▁tro	-5207
▁travel	-5208
**	-5209
主持	-5210
以上	-5211
即使	-5212
一届会议	-5213
akistan	-5214
▁collaboration	-5215
CE	-5216
数额	-5217
▁Red	-5218
▁educ	-5219
▁forest	-5220
▁balance	-5221
▁天	-5222
告诉我	-5223
美利坚合	-5224
▁forth	-5225
197	-5226
▁mo	-5227
iplom	-5228
coming	-5229
▁sound	-5230
▁Author	-5231
▁Austral	-5232
▁ey	-5233
▁led	-5234
▁seek	-5235
▁Brazil	-5236
维也	-5237
eng	-5238
▁struct	-5239
大家	-5240
维也纳	-5241
领域的	-5242
▁Cap	-5243
▁Hell	-5244
埃及	-5245
增进	-5246
尼西亚	-5247
▁fem	-5248
▁initial	-5249
▁standard	-5250
有效地	-5251
▁cle	-5252
▁lat	-5253
▁und	-5254
种族主义	-5255
▁Because	-5256
▁brother	-5257
▁leadership	-5258
▁16.	-5259
-2007	-5260
▁someone	-5261
▁talking	-5262
ray	-5263
▁我在	-5264
▁ste	-5265
alled	-5266
▁cand	-5267
▁class	-5268
▁makes	-5269
▁voluntary	-5270
▁0	-5271
.1,	-5272
▁Nor	-5273
▁goal	-5274
▁After	-5275
▁Disarmament	-5276
OU	-5277
▁其	-5278
商定	-5279
在内的	-5280
used	-5281
▁guidance	-5282
▁Prevention	-5283
▁vulnerable	-5284
明显	-5285
的地方	-5286
这样做	-5287
ania	-5288
▁character	-5289
主题	-5290
内亚	-5291
比较	-5292
▁Rw	-5293
事实上	-5294
▁197	-5295
▁UNF	-5296
▁mine	-5297
▁methods	-5298
▁transition	-5299
下降	-5300
表现	-5301
▁illegal	-5302
太平	-5303
/20	-5304
HCR	-5305
lusions	-5306
umption	-5307
▁custom	-5308
▁老	-5309
国际组织	-5310
ercial	-5311
▁useful	-5312
▁economies	-5313
满意	-5314
几内亚	-5315
提交人	-5316
▁arbit	-5317
▁beyond	-5318
▁traditional	-5319
随后	-5320
▁anti	-5321
▁road	-5322
imately	-5323
来文	-5324
模式	-5325
▁就是	-5326
▁www	-5327
▁addressing	-5328
▁Maybe	-5329
▁almost	-5330
▁Ireland	-5331
▁follows	-5332
▁getting	-5333
▁relation	-5334
▁谁	-5335
拉丁	-5336
意味着	-5337
▁各	-5338
ienna	-5339
▁Chief	-5340
▁directly	-5341
▁encouraged	-5342
▁二	-5343
几个	-5344
aratory	-5345
47	-5346
▁到	-5347
容忍	-5348
相当	-5349
太平洋	-5350
的措施	-5351
大使	-5352
官方	-5353
可能会	-5354
▁hur	-5355
▁Timor	-5356
制止	-5357
审议了	-5358
价格	-5359
的一切	-5360
特别委员会	-5361
stream	-5362
▁决定	-5363
形式的	-5364
iolog	-5365
▁delivery	-5366
便利	-5367
1994	-5368
▁disse	-5369
▁clearly	-5370
评论	-5371
信息和	-5372
所作的	-5373
相关的	-5374
omin	-5375
▁Rea	-5376
▁缔约国	-5377
ately	-5378
▁highlight	-5379
救济	-5380
inea	-5381
ries	-5382
ought	-5383
▁longer	-5384
▁Members	-5385
ciliation	-5386
死了	-5387
inth	-5388
ierra	-5389
▁maintenance	-5390
事情	-5391
外地	-5392
常驻联合国	-5393
中所	-5394
荷兰	-5395
▁aut	-5396
美利坚合众国	-5397
▁improved	-5398
▁interpret	-5399
我是	-5400
ival	-5401
uting	-5402
▁task	-5403
▁events	-5404
▁estimated	-5405
举措	-5406
的政策	-5407
resp	-5408
shad	-5409
urance	-5410
▁fulfil	-5411
▁states	-5412
▁civilians	-5413
提请	-5414
▁serve	-5415
▁spons	-5416
nes	-5417
oslav	-5418
aH	-5419
信任	-5420
治疗	-5421
dra	-5422
▁OK	-5423
▁opp	-5424
土著人民	-5425
特别会议	-5426
▁gave	-5427
▁trend	-5428
▁single	-5429
背景	-5430
斯拉夫	-5431
号决议第	-5432
▁paras	-5433
达尔	-5434
▁Have	-5435
ugoslav	-5436
▁presence	-5437
▁yourself	-5438
▁challenge	-5439
▁consequences	-5440
▁应	-5441
遗憾	-5442
与会者	-5443
▁clos	-5444
▁const	-5445
▁morning	-5446
很好	-5447
物质	-5448
▁recover	-5449
▁emergency	-5450
▁Administrative	-5451
41	-5452
53	-5453
各级	-5454
将继续	-5455
▁reasons	-5456
▁Yugoslav	-5457
▁majority	-5458
▁achievement	-5459
XX	-5460
uff	-5461
▁17.	-5462
▁insp	-5463
▁Official	-5464
▁includes	-5465
▁Education	-5466
▁我也	-5467
riage	-5468
▁Pacific	-5469
mbassador	-5470
In	-5471
▁据	-5472
》、	-5473
小时	-5474
尼日	-5475
克斯坦	-5476
▁Joint	-5477
▁implications	-5478
▁,	-5479
一年	-5480
中央	-5481
利昂	-5482
▁58	-5483
请秘书长	-5484
▁yeah	-5485
▁Latin	-5486
▁materials	-5487
虐待	-5488
以及在	-5489
号文件	-5490
gypt	-5491
▁Equ	-5492
▁Exp	-5493
iciency	-5494
▁legislative	-5495
名字	-5496
设计	-5497
▁Goals	-5498
▁Sierra	-5499
回家	-5500
日的	-5501
酌情	-5502
▁好了	-5503
▁Leone	-5504
▁Territory	-5505
权的	-5506
会议室	-5507
联合国宪章	-5508
▁Elimin	-5509
▁每	-5510
容易	-5511
看法	-5512
▁permanent	-5513
▁violation	-5514
以外	-5515
rence	-5516
▁pret	-5517
▁audit	-5518
▁model	-5519
▁constit	-5520
▁马	-5521
加拉	-5522
塞拉利昂	-5523
▁supply	-5524
▁会	-5525
▁表	-5526
行政和	-5527
erve	-5528
国际合作	-5529
▁1990	-5530
跨国	-5531
:00	-5532
▁hop	-5533
建立一个	-5534
▁cause	-5535
▁ethnic	-5536
▁campaign	-5537
▁solution	-5538
▁concluded	-5539
总体	-5540
起草	-5541
▁appeal	-5542
在该	-5543
研讨	-5544
▁Uh	-5545
拉丁美洲	-5546
▁Adop	-5547
瑞士	-5548
南斯拉夫	-5549
特别是在	-5550
▁Cham	-5551
▁stage	-5552
反恐	-5553
和解	-5554
大约	-5555
实际上	-5556
ighb	-5557
▁duty	-5558
▁我不知道	-5559
▁Pakistan	-5560
:“	-5561
体系	-5562
年龄	-5563
▁57	-5564
▁UNEP	-5565
▁reflected	-5566
▁submission	-5567
指南	-5568
预计	-5569
武器和	-5570
alities	-5571
▁religious	-5572
▁supporting	-5573
46	-5574
用的	-5575
载于	-5576
和经济	-5577
人力资源	-5578
▁persp	-5579
▁Follow	-5580
▁torture	-5581
▁Community	-5582
▁discussed	-5583
利比	-5584
岛屿	-5585
▁actors	-5586
▁Lebanon	-5587
布隆	-5588
时期	-5589
bid	-5590
有一个	-5591
▁arrest	-5592
▁moment	-5593
规划署	-5594
方案预算	-5595
▁points	-5596
▁distribution	-5597
多少	-5598
arity	-5599
▁core	-5600
▁Assoc	-5601
/0	-5602
利比里亚	-5603
▁receive	-5604
bel	-5605
作出的	-5606
▁adjust	-5607
▁recently	-5608
36	-5609
gu	-5610
▁tax	-5611
estern	-5612
vereign	-5613
▁conferences	-5614
出了	-5615
各自	-5616
布隆迪	-5617
政府和	-5618
▁red	-5619
在联合国	-5620
▁Room	-5621
▁practical	-5622
制造	-5623
处于	-5624
袭击	-5625
ands	-5626
irth	-5627
lusive	-5628
▁forum	-5629
ological	-5630
▁suggested	-5631
▁今天	-5632
▁但我	-5633
▁Wait	-5634
▁occur	-5635
▁occupied	-5636
▁conclusion	-5637
上文	-5638
截至	-5639
cle	-5640
取得了	-5641
带来	-5642
殖民	-5643
跟你	-5644
▁一些	-5645
在国家	-5646
▁raised	-5647
显然	-5648
ush	-5649
委员会主席	-5650
▁applicable	-5651
情报	-5652
者和	-5653
hat	-5654
▁sixty	-5655
osition	-5656
SR	-5657
sy	-5658
次级	-5659
集中	-5660
▁et	-5661
▁Take	-5662
更正	-5663
▁compensation	-5664
不应	-5665
印发	-5666
我说	-5667
▁Sa	-5668
研讨会	-5669
▁Guinea	-5670
▁complex	-5671
▁Furthermore	-5672
▁i	-5673
将会	-5674
未能	-5675
/62	-5676
区域和	-5677
▁wor	-5678
▁Prom	-5679
▁whom	-5680
▁permit	-5681
▁Nuclear	-5682
▁Although	-5683
▁Recommend	-5684
▁sovereign	-5685
▁occupation	-5686
脆弱	-5687
▁chem	-5688
▁Table	-5689
使其	-5690
tained	-5691
▁Vienna	-5692
▁across	-5693
▁requires	-5694
▁Headquarters	-5695
去了	-5696
▁作为	-5697
▁我們	-5698
和建议	-5699
▁isn	-5700
▁Reaff	-5701
istical	-5702
▁Palestine	-5703
▁stakeholders	-5704
接触	-5705
这个问题	-5706
habilit	-5707
▁applied	-5708
私人	-5709
经过	-5710
aut	-5711
▁你在	-5712
......	-5713
▁housing	-5714
4)	-5715
争取	-5716
是不	-5717
维和	-5718
职位	-5719
赞扬	-5720
▁这样	-5721
的支持	-5722
▁hands	-5723
▁jurisdiction	-5724
疾病	-5725
执行局	-5726
▁port	-5727
所以	-5728
父母	-5729
男子	-5730
ria	-5731
的时间	-5732
妇女地位	-5733
经济和社会	-5734
ittees	-5735
▁UNHCR	-5736
▁appear	-5737
▁divers	-5738
▁Ambassador	-5739
克兰	-5740
边界	-5741
▁List	-5742
债权	-5743
女人	-5744
mar	-5745
临时议程	-5746
enior	-5747
▁language	-5748
43	-5749
爆炸	-5750
检察官	-5751
enced	-5752
vered	-5753
▁detailed	-5754
法治	-5755
课程	-5756
bur	-5757
ump	-5758
▁对于	-5759
共同体	-5760
▁desp	-5761
人道主义法	-5762
▁negative	-5763
降低	-5764
▁ge	-5765
▁welcomes	-5766
平衡	-5767
流动	-5768
全世界	-5769
▁Nig	-5770
▁Conc	-5771
economic	-5772
▁democracy	-5773
富尔	-5774
男人	-5775
ancy	-5776
问题国际	-5777
▁word	-5778
▁Space	-5779
▁candid	-5780
▁approaches	-5781
▁Elimination	-5782
判决	-5783
规范	-5784
▁Hi	-5785
▁Ste	-5786
▁cut	-5787
和平进程	-5788
▁Authority	-5789
哥伦	-5790
父亲	-5791
集体	-5792
马拉	-5793
ley	-5794
▁ir	-5795
▁Weapons	-5796
▁factors	-5797
商品	-5798
最佳	-5799
500	-5800
ats	-5801
▁鉴于	-5802
int	-5803
项目的	-5804
所有国家	-5805
印度尼西亚	-5806
▁Persons	-5807
▁physical	-5808
▁products	-5809
任择	-5810
年来	-5811
年期间	-5812
▁wife	-5813
▁expect	-5814
▁subsid	-5815
▁periodic	-5816
查明	-5817
消费	-5818
和政治	-5819
的原则	-5820
▁Burund	-5821
▁mentioned	-5822
69	-5823
依然	-5824
延长	-5825
irty	-5826
议事规则	-5827
怎样	-5828
附件一	-5829
otion	-5830
▁drink	-5831
▁Moreover	-5832
只能	-5833
网站	-5834
都不	-5835
/61	-5836
▁你不	-5837
第一次	-5838
▁schools	-5839
▁sanctions	-5840
▁也许	-5841
atever	-5842
▁说	-5843
教育和	-5844
▁Sm	-5845
介绍了	-5846
的儿童	-5847
ique	-5848
哥伦比亚	-5849
▁covered	-5850
适应	-5851
aria	-5852
达尔富尔	-5853
▁Egypt	-5854
▁consultation	-5855
AP	-5856
WG	-5857
ING	-5858
ourn	-5859
▁ton	-5860
▁corre	-5861
national	-5862
flic	-5863
非洲联盟	-5864
▁Like	-5865
▁manag	-5866
tegration	-5867
▁Coordination	-5868
▁对不起	-5869
▁Drug	-5870
▁judges	-5871
arations	-5872
▁extreme	-5873
▁democratic	-5874
各个	-5875
监狱	-5876
hood	-5877
iary	-5878
▁Est	-5879
与联合国	-5880
▁Over	-5881
▁pred	-5882
▁urgent	-5883
herlands	-5884
年轻	-5885
根廷	-5886
icy	-5887
▁是啊	-5888
▁sold	-5889
▁Decides	-5890
▁Supplement	-5891
为止	-5892
语言	-5893
账户	-5894
阁下	-5895
▁有人	-5896
世界银行	-5897
ishes	-5898
action	-5899
irming	-5900
verage	-5901
▁3,	-5902
▁其他	-5903
▁Move	-5904
▁billion	-5905
▁stressed	-5906
ancial	-5907
相同	-5908
▁yes	-5909
▁Christ	-5910
▁chemical	-5911
▁collective	-5912
日和	-5913
▁国家	-5914
owers	-5915
▁baby	-5916
▁dise	-5917
▁effic	-5918
▁diplom	-5919
上诉	-5920
杀了	-5921
▁penal	-5922
学习	-5923
的结果	-5924
▁takes	-5925
▁closely	-5926
▁withdra	-5927
▁movement	-5928
决心	-5929
启动	-5930
现实	-5931
确实	-5932
转移	-5933
工作队	-5934
系统的	-5935
/55/	-5936
原子能机构	-5937
▁Federal	-5938
▁Australia	-5939
▁exploitation	-5940
应在	-5941
破产	-5942
赞成	-5943
CON	-5944
任择议定书	-5945
▁Legal	-5946
:(	-5947
当前	-5948
往往	-5949
ece	-5950
▁Eth	-5951
ureau	-5952
大会第五十	-5953
87	-5954
lier	-5955
▁ide	-5956
委员会在	-5957
▁electronic	-5958
兴趣	-5959
是对	-5960
示范	-5961
▁friends	-5962
▁Operations	-5963
▁Administration	-5964
挪威	-5965
CCC	-5966
▁我还	-5967
举行了	-5968
anish	-5969
的决议草案	-5970
arency	-5971
▁female	-5972
▁Indones	-5973
▁everyone	-5974
▁太	-5975
▁($	-5976
▁Italy	-5977
▁Quest	-5978
▁liber	-5979
巴勒斯坦人民	-5980
很大	-5981
许可	-5982
政府的	-5983
aces	-5984
umed	-5985
▁Will	-5986
▁truth	-5987
▁confidence	-5988
我不	-5989
派遣	-5990
▁gl	-5991
本报告	-5992
omes	-5993
解决办法	-5994
▁comment	-5995
我想	-5996
orial	-5997
▁legit	-5998
▁procurement	-5999
团结	-6000
普通	-6001
iful	-6002
▁21.	-6003
▁blo	-6004
▁intended	-6005
gn	-6006
共识	-6007
污染	-6008
rete	-6009
▁Recogn	-6010
外层	-6011
科特	-6012
联络	-6013
都有	-6014
ift	-6015
miss	-6016
▁sens	-6017
▁detention	-6018
▁rehabilit	-6019
▁substantial	-6020
命令	-6021
群岛	-6022
出版物	-6023
▁book	-6024
高级专员办事处	-6025
▁growing	-6026
斯洛	-6027
▁uh	-6028
外层空间	-6029
▁1997	-6030
▁judge	-6031
开放	-6032
▁Ah	-6033
third	-6034
▁fear	-6035
消除对妇女	-6036
▁perpet	-6037
上午	-6038
▁Br	-6039
▁Session	-6040
▁markets	-6041
32	-6042
国籍	-6043
▁gone	-6044
8)	-6045
BI	-6046
应用	-6047
资本	-6048
egu	-6049
预防犯罪	-6050
▁Note	-6051
▁known	-6052
▁remed	-6053
▁renew	-6054
▁started	-6055
65	-6056
形成	-6057
▁die	-6058
▁heav	-6059
▁1999,	-6060
▁Fifty	-6061
▁membership	-6062
侵害	-6063
▁强调	-6064
▁sea	-6065
七届会议	-6066
▁nice	-6067
▁donors	-6068
8/	-6069
主权	-6070
出的	-6071
指示	-6072
框架内	-6073
▁19.	-6074
▁fra	-6075
▁knew	-6076
arents	-6077
安全理事会第	-6078
▁commercial	-6079
▁consistent	-6080
约翰	-6081
ala	-6082
的做法	-6083
onia	-6084
▁wanna	-6085
▁although	-6086
▁beginning	-6087
▁capacities	-6088
▁Opt	-6089
▁fre	-6090
▁inj	-6091
▁Fifth	-6092
▁urban	-6093
▁System	-6094
▁的	-6095
不受	-6096
以期	-6097
方针	-6098
有的	-6099
解除	-6100
son	-6101
协调员	-6102
▁Dad	-6103
▁delay	-6104
▁enabl	-6105
补救	-6106
西兰	-6107
▁另外	-6108
▁工作组	-6109
▁caused	-6110
▁inside	-6111
▁completed	-6112
▁positions	-6113
▁mainstream	-6114
▁independence	-6115
常设	-6116
▁Ky	-6117
年以来	-6118
lies	-6119
reen	-6120
▁adap	-6121
▁Hello	-6122
▁offer	-6123
▁remained	-6124
永远	-6125
▁20.	-6126
▁vac	-6127
▁neighb	-6128
▁focused	-6129
▁freedoms	-6130
▁alternative	-6131
aza	-6132
▁EU	-6133
▁John	-6134
▁disapp	-6135
▁efficient	-6136
行的	-6137
行动的	-6138
▁Sir	-6139
iological	-6140
roduction	-6141
放在	-6142
最大	-6143
新西兰	-6144
▁corpor	-6145
▁courts	-6146
▁saying	-6147
研究所	-6148
▁pub	-6149
/2007	-6150
▁Item	-6151
▁wasn	-6152
▁creat	-6153
▁measure	-6154
▁involvement	-6155
并将	-6156
所列	-6157
着重	-6158
有什么	-6159
▁Burundi	-6160
期限	-6161
补编	-6162
返回	-6163
tlements	-6164
▁attempt	-6165
St	-6166
dy	-6167
▁安	-6168
对此	-6169
随着	-6170
或其他	-6171
的义务	-6172
iers	-6173
发展援助	-6174
文化权利	-6175
▁Rules	-6176
▁reflect	-6177
▁mandates	-6178
▁construction	-6179
▁嗨	-6180
没事	-6181
▁answ	-6182
▁elected	-6183
资格	-6184
▁Rwanda	-6185
▁combating	-6186
▁Netherlands	-6187
▁investigation	-6188
严格	-6189
▁那是	-6190
的意见	-6191
的有关	-6192
with	-6193
采取措施	-6194
▁entry	-6195
▁Budget	-6196
▁Princip	-6197
发了	-6198
母亲	-6199
tieth	-6200
▁round	-6201
▁cooperate	-6202
▁噢	-6203
▁总	-6204
▁我很	-6205
ains	-6206
▁nor	-6207
▁check	-6208
▁比	-6209
第六	-6210
服务的	-6211
ened	-6212
flict	-6213
取得的进展	-6214
itment	-6215
克罗	-6216
▁那么	-6217
▁Two	-6218
▁resulting	-6219
▁efficiency	-6220
▁accountability	-6221
42	-6222
vo	-6223
在于	-6224
ishing	-6225
▁followed	-6226
EM	-6227
分钟	-6228
斗争	-6229
更为	-6230
未经	-6231
▁你好	-6232
告诉你	-6233
采取了	-6234
▁sou	-6235
▁border	-6236
候选	-6237
态度	-6238
▁Se	-6239
本组织	-6240
▁personal	-6241
化的	-6242
▁From	-6243
▁English	-6244
▁Somalia	-6245
中期	-6246
它的	-6247
载有	-6248
额外	-6249
至关重要	-6250
▁floor	-6251
▁gotta	-6252
▁acknow	-6253
▁dealing	-6254
▁scientific	-6255
海地	-6256
.4/	-6257
/57/	-6258
othing	-6259
▁favour	-6260
▁designed	-6261
▁Financing	-6262
▁partnerships	-6263
HC	-6264
平均	-6265
jud	-6266
/56/	-6267
▁sle	-6268
九届会议	-6269
ching	-6270
gment	-6271
▁honour	-6272
▁attacks	-6273
瑞典	-6274
约束	-6275
ira	-6276
▁56	-6277
第四十	-6278
▁安理会	-6279
▁watch	-6280
▁possibility	-6281
执法	-6282
▁Ur	-6283
ointed	-6284
▁damage	-6285
▁obtain	-6286
▁difficulties	-6287
然后	-6288
赞同	-6289
/60/	-6290
bord	-6291
hest	-6292
全体会议	-6293
▁Turkey	-6294
▁integr	-6295
▁parents	-6296
AD	-6297
剥夺	-6298
效力	-6299
▁Dr	-6300
▁这里	-6301
人员的	-6302
▁North	-6303
▁behind	-6304
”(	-6305
书面	-6306
做了	-6307
▁birth	-6308
▁generally	-6309
▁publication	-6310
发展的	-6311
▁2005.	-6312
▁seven	-6313
发展中国家的	-6314
途径	-6315
spoke	-6316
▁involving	-6317
▁它们	-6318
亲爱的	-6319
▁prob	-6320
▁Sorry	-6321
▁Police	-6322
▁timely	-6323
▁culture	-6324
▁disaster	-6325
剥削	-6326
难以	-6327
这一问题	-6328
ivity	-6329
▁wond	-6330
流离失所者	-6331
ifying	-6332
▁Labour	-6333
▁University	-6334
当然	-6335
rep	-6336
▁sup	-6337
▁Prep	-6338
▁studies	-6339
▁external	-6340
▁conclusions	-6341
▁constitution	-6342
争端	-6343
数目	-6344
▁Bl	-6345
机构间	-6346
iety	-6347
▁oil	-6348
▁Zeal	-6349
▁doct	-6350
▁belong	-6351
▁concrete	-6352
▁Financial	-6353
核查	-6354
除了	-6355
更好地	-6356
▁Slo	-6357
组成部分	-6358
itzer	-6359
▁racial	-6360
▁Zealand	-6361
▁definition	-6362
▁encourages	-6363
▁territories	-6364
不再	-6365
替代	-6366
让你	-6367
cial	-6368
▁22.	-6369
▁emp	-6370
▁max	-6371
▁mem	-6372
▁ord	-6373
八届会议	-6374
技术合作	-6375
▁Stand	-6376
▁phase	-6377
家伙	-6378
惩罚	-6379
语文	-6380
▁cou	-6381
▁mis	-6382
▁units	-6383
ifically	-6384
▁enterpr	-6385
▁satisfact	-6386
▁improvement	-6387
基地	-6388
面前	-6389
▁你想	-6390
abit	-6391
▁Pop	-6392
▁semin	-6393
▁companies	-6394
▁deployment	-6395
▁transparency	-6396
fur	-6397
怎么样	-6398
刑事司法	-6399
▁obst	-6400
▁rapid	-6401
52	-6402
就此	-6403
正常	-6404
沒有	-6405
筹措	-6406
产生的	-6407
及其他	-6408
actions	-6409
排放	-6410
摩洛	-6411
ead	-6412
let	-6413
rip	-6414
fort	-6415
的联合国	-6416
/2000	-6417
▁1996	-6418
▁alleged	-6419
之中	-6420
对该	-6421
展开	-6422
当时	-6423
乌克兰	-6424
▁spir	-6425
▁donor	-6426
▁organ	-6427
▁youth	-6428
▁minutes	-6429
▁recovery	-6430
▁conventions	-6431
▁Peacekeeping	-6432
Al	-6433
失业	-6434
与其他	-6435
的执行	-6436
roat	-6437
▁23.	-6438
▁Ref	-6439
▁NGOs	-6440
▁qual	-6441
▁source	-6442
▁percent	-6443
cH	-6444
不利	-6445
特定	-6446
尽可能	-6447
▁Jud	-6448
▁Tell	-6449
ground	-6450
▁relief	-6451
▁Islands	-6452
▁payment	-6453
儿子	-6454
道路	-6455
高度	-6456
earch	-6457
▁refugee	-6458
itzerland	-6459
少年	-6460
▁第三	-6461
itude	-6462
▁Western	-6463
▁Optional	-6464
-2	-6465
信托	-6466
兄弟	-6467
哪些	-6468
法令	-6469
▁500	-6470
▁Ibid	-6471
▁indeed	-6472
ua	-6473
和黑	-6474
ses	-6475
发展和	-6476
▁art	-6477
iring	-6478
▁likely	-6479
▁guarantee	-6480
强制	-6481
毁灭	-6482
逮捕	-6483
开发署	-6484
▁Bos	-6485
▁fil	-6486
▁UNID	-6487
▁advice	-6488
工发	-6489
iop	-6490
的挑战	-6491
的社会	-6492
▁educational	-6493
▁internationally	-6494
))	-6495
ole	-6496
可能性	-6497
摩洛哥	-6498
管理和	-6499
补编第	-6500
▁log	-6501
▁doub	-6502
▁maybe	-6503
▁depend	-6504
▁Records	-6505
石油	-6506
获取	-6507
band	-6508
▁Mad	-6509
▁Med	-6510
-2003	-6511
▁causes	-6512
▁company	-6513
▁despite	-6514
▁complement	-6515
▁Territories	-6516
▁下	-6517
今年	-6518
取消	-6519
oto	-6520
包括在	-6521
▁Asian	-6522
▁approval	-6523
建筑	-6524
诸如	-6525
ots	-6526
事务部	-6527
讨论会	-6528
sych	-6529
秘书长关于	-6530
active	-6531
▁UNFPA	-6532
▁advoc	-6533
世界首脑会议	-6534
▁intern	-6535
▁Cultural	-6536
5)	-6537
订正	-6538
/63	-6539
▁earth	-6540
▁enhancing	-6541
今晚	-6542
埃塞	-6543
最好	-6544
迪瓦	-6545
的资源	-6546
inese	-6547
▁Docu	-6548
▁Chamber	-6549
▁ability	-6550
▁Indonesia	-6551
▁convention	-6552
▁corruption	-6553
SC	-6554
你是	-6555
波斯	-6556
▁str	-6557
etimes	-6558
▁anyone	-6559
▁statistics	-6560
Th	-6561
完整	-6562
▁你说	-6563
▁UNI	-6564
科特迪瓦	-6565
▁Phil	-6566
idents	-6567
yn	-6568
orr	-6569
vance	-6570
▁fell	-6571
▁limit	-6572
▁Argent	-6573
▁observations	-6574
66	-6575
▁多	-6576
各地	-6577
明天	-6578
/17	-6579
和犯罪	-6580
▁Bang	-6581
▁draw	-6582
▁destro	-6583
一般性	-6584
事务厅	-6585
国集团	-6586
▁Assistance	-6587
▁Association	-6588
值得	-6589
尼日利亚	-6590
-2009	-6591
▁threats	-6592
▁Strategy	-6593
汇编	-6594
俄比亚	-6595
lying	-6596
oring	-6597
▁endors	-6598
ervation	-6599
埃塞俄比亚	-6600
▁Trust	-6601
ET	-6602
外部	-6603
ression	-6604
▁Syrian	-6605
▁formal	-6606
一位	-6607
初步	-6608
谴责	-6609
▁政府	-6610
▁Ben	-6611
暴力行为	-6612
▁happy	-6613
▁urges	-6614
▁announ	-6615
▁wouldn	-6616
▁crucial	-6617
▁finance	-6618
▁thinking	-6619
军队	-6620
女童	-6621
工资	-6622
set	-6623
▁只有	-6624
和管理	-6625
的方法	-6626
▁lar	-6627
▁constitute	-6628
▁strengthened	-6629
.8	-6630
信道	-6631
照顾	-6632
资源的	-6633
▁Swed	-6634
▁safegu	-6635
:「	-6636
ED	-6637
▁`	-6638
▁想	-6639
居住	-6640
工人	-6641
遭到	-6642
▁Cy	-6643
▁报告	-6644
asion	-6645
▁recognize	-6646
▁subregional	-6647
▁disabilities	-6648
供资	-6649
受益	-6650
地亚	-6651
安全和	-6652
illed	-6653
▁haven	-6654
▁Darfur	-6655
▁deliber	-6656
▁prepare	-6657
食物	-6658
▁77	-6659
lined	-6660
▁Resp	-6661
▁comes	-6662
▁innov	-6663
▁Bureau	-6664
▁Northern	-6665
▁immediately	-6666
助理	-6667
指定	-6668
预测	-6669
▁我有	-6670
为基础	-6671
inding	-6672
▁Spain	-6673
▁decre	-6674
▁knows	-6675
▁actively	-6676
ma	-6677
人都	-6678
的事情	-6679
▁Day	-6680
▁Har	-6681
▁gun	-6682
▁ten	-6683
thern	-6684
▁Proc	-6685
▁sense	-6686
▁allowed	-6687
PT	-6688
下去	-6689
贷款	-6690
CONF	-6691
▁Sim	-6692
▁Vice	-6693
programme	-6694
▁enhanced	-6695
公务	-6696
▁Port	-6697
▁2006.	-6698
任期	-6699
变成	-6700
欧元	-6701
阻止	-6702
elf	-6703
并没有	-6704
透明度	-6705
ocks	-6706
▁Inc	-6707
▁Many	-6708
▁clar	-6709
▁2004.	-6710
▁industry	-6711
负担	-6712
这次	-6713
olv	-6714
emic	-6715
gans	-6716
▁hosp	-6717
▁construct	-6718
▁expertise	-6719
▁temporary	-6720
代理	-6721
英国	-6722
DAW	-6723
amer	-6724
▁tom	-6725
ufact	-6726
ournal	-6727
second	-6728
▁wants	-6729
▁Policy	-6730
▁solutions	-6731
贩卖	-6732
次级方案	-6733
▁leading	-6734
▁summary	-6735
▁rehabilitation	-6736
子女	-6737
蒙特	-6738
▁按照	-6739
发言者	-6740
大部分	-6741
▁Hel	-6742
iding	-6743
▁2002.	-6744
▁drugs	-6745
不过	-6746
件事	-6747
自治	-6748
▁Liberia	-6749
▁holding	-6750
TO	-6751
尼斯	-6752
颁布	-6753
▁必须	-6754
工程处	-6755
有组织	-6756
的说明	-6757
▁Bosn	-6758
▁Colomb	-6759
▁Intern	-6760
▁launched	-6761
SP	-6762
ape	-6763
不同的	-6764
的方案	-6765
▁town	-6766
▁obstac	-6767
▁reject	-6768
促请	-6769
过境	-6770
▁“(	-6771
▁lower	-6772
▁raise	-6773
▁depart	-6774
▁extend	-6775
▁pretty	-6776
▁average	-6777
坚持	-6778
错误	-6779
12)	-6780
▁我国	-6781
参加了	-6782
▁ICT	-6783
▁理事会	-6784
ninth	-6785
▁boys	-6786
▁firm	-6787
▁influ	-6788
▁repro	-6789
刑法	-6790
失踪	-6791
附属	-6792
面对	-6793
▁鼓励	-6794
部门的	-6795
▁Hait	-6796
▁myself	-6797
你在	-6798
赋予	-6799
udi	-6800
是因为	-6801
eneg	-6802
▁1995	-6803
大会第六十	-6804
weapon	-6805
▁aware	-6806
▁放	-6807
付款	-6808
.15	-6809
的承诺	-6810
▁Obs	-6811
正式记录	-6812
▁tonight	-6813
▁committee	-6814
▁Introduction	-6815
地球	-6816
将于	-6817
迄今	-6818
.1)	-6819
iff	-6820
▁Sam	-6821
▁mur	-6822
ables	-6823
▁pain	-6824
▁criteria	-6825
――	-6826
技能	-6827
▁48	-6828
人员和	-6829
▁door	-6830
▁restrict	-6831
另一个	-6832
▁forg	-6833
▁history	-6834
南部	-6835
塞浦	-6836
路斯	-6837
1993	-6838
▁24.	-6839
▁Jer	-6840
塞浦路斯	-6841
ighth	-6842
▁UNIDO	-6843
▁scale	-6844
▁Noting	-6845
▁absence	-6846
-1	-6847
交换	-6848
在此	-6849
gol	-6850
oler	-6851
2004)	-6852
secutor	-6853
▁emphasized	-6854
uk	-6855
变得	-6856
另外	-6857
▁hus	-6858
fully	-6859
▁Subcomm	-6860
▁relative	-6861
▁migration	-6862
proliferation	-6863
RC	-6864
▁以	-6865
干预	-6866
我会	-6867
段中	-6868
jan	-6869
▁为此	-6870
▁我就	-6871
▁Calls	-6872
▁types	-6873
▁extended	-6874
▁determine	-6875
▁Te	-6876
的一般	-6877
▁25.	-6878
luding	-6879
ensions	-6880
▁Switzerland	-6881
▁assessments	-6882
▁agricultural	-6883
▁走	-6884
强迫	-6885
six	-6886
不可能	-6887
部长级	-6888
▁esc	-6889
▁2003.	-6890
委员会的报告	-6891
▁sustain	-6892
▁emerging	-6893
主流	-6894
年代	-6895
智利	-6896
lev	-6897
▁Thanks	-6898
▁island	-6899
onization	-6900
▁Research	-6901
不了	-6902
协作	-6903
同一	-6904
或许	-6905
菲律	-6906
西非	-6907
▁THE	-6908
▁easy	-6909
▁guess	-6910
▁Norway	-6911
分摊	-6912
朝鲜	-6913
期待	-6914
▁cy	-6915
数据库	-6916
菲律宾	-6917
lock	-6918
▁der	-6919
▁2010	-6920
▁Most	-6921
ircraft	-6922
▁Ethiop	-6923
▁undertake	-6924
▁punishment	-6925
IP	-6926
现行	-6927
right	-6928
▁regret	-6929
▁worked	-6930
▁planned	-6931
▁documentation	-6932
乌干	-6933
消息	-6934
gue	-6935
的具体	-6936
一切形式	-6937
▁Miss	-6938
▁says	-6939
olvency	-6940
▁intell	-6941
并非	-6942
战斗	-6943
方向	-6944
毫无	-6945
▁可以	-6946
乌干达	-6947
ously	-6948
▁base	-6949
后的	-6950
投入	-6951
还在	-6952
▁项目	-6953
保护和	-6954
发生了	-6955
▁我只是	-6956
▁这就是	-6957
▁cash	-6958
▁solid	-6959
▁tools	-6960
▁secure	-6961
▁engaged	-6962
▁geograph	-6963
单独	-6964
成就	-6965
直到	-6966
紧张	-6967
跟我	-6968
elt	-6969
grat	-6970
▁pric	-6971
resses	-6972
▁giving	-6973
角度	-6974
问责	-6975
inued	-6976
▁Init	-6977
▁Indeed	-6978
▁separate	-6979
68	-6980
裁决	-6981
的东西	-6982
被占领	-6983
/59/	-6984
usal	-6985
▁clean	-6986
▁Adoption	-6987
▁perspective	-6988
正确	-6989
▁37	-6990
情况的	-6991
Comm	-6992
▁Rac	-6993
▁2001.	-6994
igation	-6995
▁interested	-6996
也许	-6997
cing	-6998
▁Mod	-6999
▁Prof	-7000
▁决议草案	-7001
atform	-7002
▁ahead	-7003
▁election	-7004
▁coordinated	-7005
▁globalization	-7006
加沙	-7007
▁Uk	-7008
▁美国	-7009
化学品	-7010
的基本	-7011
第三十	-7012
isher	-7013
反恐怖主义	-7014
▁Letter	-7015
▁actual	-7016
▁tomorrow	-7017
是你	-7018
ere	-7019
妇女在	-7020
/58/	-7021
1991	-7022
icro	-7023
劳工组织	-7024
seventh	-7025
▁spirit	-7026
ximately	-7027
▁Paragraph	-7028
▁Chairperson	-7029
2(	-7030
wh	-7031
人士	-7032
分享	-7033
总额	-7034
▁34	-7035
主席团	-7036
的责任	-7037
阿根廷	-7038
▁Lea	-7039
raine	-7040
有组织犯罪	-7041
▁Georg	-7042
▁Partners	-7043
▁workshop	-7044
▁industrial	-7045
-5	-7046
压力	-7047
尽快	-7048
lor	-7049
▁54	-7050
第二次	-7051
▁Def	-7052
▁buy	-7053
▁vir	-7054
二届会议	-7055
▁looks	-7056
▁compared	-7057
”;	-7058
妨碍	-7059
▁(2	-7060
▁你有	-7061
▁除了	-7062
发生的	-7063
的文件	-7064
工作方案	-7065
波斯尼亚	-7066
毒品和犯罪	-7067
▁worry	-7068
▁medium	-7069
▁prosec	-7070
▁earlier	-7071
▁written	-7072
▁described	-7073
▁operating	-7074
▁contributed	-7075
减轻	-7076
hic	-7077
▁26.	-7078
▁mag	-7079
▁秘书处	-7080
▁quick	-7081
▁elabor	-7082
▁chapter	-7083
你了	-7084
养恤	-7085
巩固	-7086
意愿	-7087
议题	-7088
ius	-7089
有利于	-7090
联合国的	-7091
▁city	-7092
▁site	-7093
▁fourth	-7094
▁minimum	-7095
▁specifically	-7096
现代	-7097
现金	-7098
gic	-7099
广泛的	-7100
感染	-7101
拟定	-7102
第七	-7103
而是	-7104
▁div	-7105
▁hot	-7106
▁Stop	-7107
▁eyes	-7108
▁thous	-7109
igration	-7110
▁subsequent	-7111
▁declaration	-7112
伙计	-7113
依赖	-7114
销售	-7115
AEA	-7116
作出了	-7117
和区域	-7118
多样性	-7119
▁Bas	-7120
lling	-7121
lt	-7122
▁http	-7123
▁namely	-7124
▁imposed	-7125
paragraph	-7126
▁Technical	-7127
▁languages	-7128
即将	-7129
弹药	-7130
den	-7131
▁IN	-7132
信托基金	-7133
▁Even	-7134
▁委员会还	-7135
▁forced	-7136
▁Framework	-7137
▁determined	-7138
ht	-7139
▁向	-7140
▁只是	-7141
▁27.	-7142
▁Refuge	-7143
▁placed	-7144
▁shared	-7145
▁skills	-7146
▁defined	-7147
旅游	-7148
绝对	-7149
得到了	-7150
的妇女	-7151
▁请秘书长	-7152
▁senior	-7153
▁unless	-7154
▁accompl	-7155
希腊	-7156
族裔	-7157
重返	-7158
ilt	-7159
▁compr	-7160
▁extra	-7161
▁forty	-7162
国际和平与安全	-7163
▁reconciliation	-7164
防治	-7165
▁你看	-7166
▁Consid	-7167
毒品和犯罪问题	-7168
使得	-7169
发起	-7170
格鲁	-7171
增加了	-7172
HCHR	-7173
▁rise	-7174
▁Never	-7175
▁attend	-7176
▁series	-7177
▁appointed	-7178
旅行	-7179
沙特	-7180
进步	-7181
STA	-7182
▁39	-7183
▁4,	-7184
▁weak	-7185
死的	-7186
痛苦	-7187
ney	-7188
▁你怎么	-7189
▁Bosnia	-7190
▁organs	-7191
▁recognition	-7192
会的	-7193
最低	-7194
滥用	-7195
简单	-7196
被告	-7197
次区域	-7198
▁War	-7199
▁ship	-7200
▁regul	-7201
▁expenditure	-7202
信仰	-7203
包含	-7204
和非	-7205
▁真的	-7206
inary	-7207
▁Moroc	-7208
▁intens	-7209
▁targets	-7210
▁withdraw	-7211
ifications	-7212
▁reconstruction	-7213
03	-7214
月在	-7215
缅甸	-7216
试验	-7217
一直在	-7218
▁eat	-7219
▁hit	-7220
▁win	-7221
▁我们还	-7222
▁Serb	-7223
▁shown	-7224
▁aircraft	-7225
▁students	-7226
▁四	-7227
一道	-7228
会计	-7229
医院	-7230
结婚	-7231
试图	-7232
▁Ke	-7233
做什么	-7234
及利亚	-7235
▁ren	-7236
ental	-7237
▁advant	-7238
▁Britain	-7239
▁accepted	-7240
▁reviewed	-7241
▁Parliament	-7242
上帝	-7243
彻底	-7244
治理	-7245
comp	-7246
人权理事会	-7247
▁Experts	-7248
1(	-7249
la	-7250
调解	-7251
阻碍	-7252
▁Ob	-7253
▁Mrs	-7254
▁norms	-7255
▁mutual	-7256
AO	-7257
卫星	-7258
多的	-7259
也没有	-7260
日期间	-7261
▁fix	-7262
▁vill	-7263
enders	-7264
▁Chinese	-7265
差距	-7266
▁35	-7267
会议和	-7268
的基础上	-7269
非洲国家	-7270
South	-7271
▁Roman	-7272
▁weeks	-7273
▁Finally	-7274
▁insurance	-7275
▁remaining	-7276
取决	-7277
stan	-7278
ovina	-7279
▁daugh	-7280
安全理事会主席	-7281
▁Governing	-7282
▁appointment	-7283
▁competition	-7284
▁increasingly	-7285
用途	-7286
葡萄	-7287
谅解	-7288
▁Fam	-7289
▁Argentina	-7290
进口	-7291
▁第一	-7292
取决于	-7293
和加勒比	-7294
▁Prov	-7295
▁contracts	-7296
▁eliminate	-7297
▁recruitment	-7298
▁participated	-7299
地利	-7300
曾经	-7301
监测和	-7302
oted	-7303
▁tea	-7304
克罗地亚	-7305
▁psych	-7306
▁conform	-7307
▁destroy	-7308
?"	-7309
定于	-7310
得以	-7311
拉圭	-7312
委员会和	-7313
▁Mont	-7314
eighth	-7315
▁Chile	-7316
▁urged	-7317
▁Invest	-7318
影响的	-7319
▁fall	-7320
▁type	-7321
▁Officer	-7322
▁Ministers	-7323
▁ratification	-7324
和你	-7325
漂亮	-7326
生态	-7327
良好	-7328
奥地利	-7329
prus	-7330
ties	-7331
基本自由	-7332
通信技术	-7333
▁front	-7334
▁Internet	-7335
▁findings	-7336
▁probably	-7337
▁protocol	-7338
▁diplomatic	-7339
▁represented	-7340
▁registration	-7341
储存	-7342
和我	-7343
Sec	-7344
off	-7345
rid	-7346
提案国	-7347
▁Ver	-7348
侵犯人权	-7349
▁story	-7350
▁losses	-7351
▁husband	-7352
▁Partnership	-7353
UC	-7354
oe	-7355
不错	-7356
述了	-7357
▁Gender	-7358
▁places	-7359
▁Another	-7360
▁consent	-7361
▁accounts	-7362
▁reintegration	-7363
丹麦	-7364
吉亚	-7365
干嘛	-7366
ask	-7367
uay	-7368
轻武器	-7369
格鲁吉亚	-7370
asters	-7371
▁compar	-7372
公布	-7373
核可	-7374
法案	-7375
状态	-7376
ION	-7377
2010	-7378
amed	-7379
▁Exc	-7380
▁Its	-7381
▁Vol	-7382
/2003	-7383
▁Gaza	-7384
▁willing	-7385
▁manufact	-7386
▁supports	-7387
后勤	-7388
都在	-7389
▁38	-7390
▁pp	-7391
的原因	-7392
puts	-7393
▁stuff	-7394
▁Deputy	-7395
▁fields	-7396
▁affairs	-7397
▁religion	-7398
▁Humanitarian	-7399
▁reservations	-7400
▁representation	-7401
97	-7402
Is	-7403
总是	-7404
ura	-7405
▁Ug	-7406
▁同样	-7407
1992	-7408
▁har	-7409
六届会议	-7410
这些国家	-7411
sixth	-7412
▁Herz	-7413
▁2000.	-7414
▁content	-7415
实地	-7416
并向	-7417
波兰	-7418
调动	-7419
来西亚	-7420
难民署	-7421
haps	-7422
工发组织	-7423
▁vers	-7424
▁Their	-7425
▁Colombia	-7426
▁Yugoslavia	-7427
▁elimination	-7428
年人	-7429
故事	-7430
iance	-7431
▁Notes	-7432
▁Prime	-7433
▁vehic	-7434
▁president	-7435
证书	-7436
/10	-7437
副主席	-7438
uled	-7439
▁Gra	-7440
▁tou	-7441
庇护	-7442
灵活	-7443
结合	-7444
▁Mat	-7445
这些问题	-7446
▁cohe	-7447
▁surv	-7448
▁tried	-7449
▁Cyprus	-7450
▁listen	-7451
▁marriage	-7452
▁organizational	-7453
HO	-7454
层面	-7455
确是	-7456
带来的	-7457
▁Give	-7458
egovina	-7459
▁reforms	-7460
▁structures	-7461
我在	-7462
pped	-7463
urit	-7464
▁Enc	-7465
▁unc	-7466
▁Year	-7467
▁cert	-7468
▁Internal	-7469
64	-7470
oz	-7471
htm	-7472
ulg	-7473
▁IV	-7474
▁同时	-7475
▁等等	-7476
fare	-7477
▁我觉得	-7478
▁merc	-7479
▁answer	-7480
olerance	-7481
▁grounds	-7482
▁workshops	-7483
哪里	-7484
签名	-7485
/61/	-7486
▁mot	-7487
联合国各	-7488
▁Viol	-7489
▁highest	-7490
▁emphasis	-7491
▁Herzegovina	-7492
中非	-7493
解放	-7494
rig	-7495
的工作人员	-7496
abitat	-7497
portion	-7498
▁Nothing	-7499
▁Ukraine	-7500
你不	-7501
宗旨	-7502
电视	-7503
的前	-7504
航空	-7505
认真	-7506
300	-7507
干什么	-7508
/62/	-7509
/2001	-7510
▁risks	-7511
▁otherwise	-7512
利时	-7513
的办法	-7514
提供援助	-7515
▁mach	-7516
▁walk	-7517
▁datab	-7518
▁transl	-7519
▁options	-7520
resolution	-7521
▁household	-7522
▁inclusion	-7523
6)	-7524
WA	-7525
名义	-7526
强烈	-7527
uls	-7528
▁让我	-7529
/2005	-7530
acher	-7531
endum	-7532
▁dire	-7533
▁Croat	-7534
▁Listen	-7535
▁played	-7536
上升	-7537
中有	-7538
并为	-7539
放弃	-7540
是谁	-7541
ari	-7542
新闻部	-7543
gram	-7544
▁Saf	-7545
▁mid	-7546
fifth	-7547
lished	-7548
▁faith	-7549
▁racism	-7550
▁commission	-7551
▁encouraging	-7552
▁Subcommittee	-7553
5%	-7554
一個	-7555
应付	-7556
我就	-7557
技术和	-7558
的关键	-7559
FFFF	-7560
三届会议	-7561
▁goes	-7562
(2001)	-7563
ductive	-7564
▁owners	-7565
▁speakers	-7566
▁component	-7567
▁哈	-7568
。」	-7569
大陆	-7570
极端	-7571
芬兰	-7572
▁Sup	-7573
/2004	-7574
enses	-7575
▁Chap	-7576
▁Iraqi	-7577
▁tasks	-7578
▁reduced	-7579
听到	-7580
民国	-7581
燃料	-7582
amm	-7583
修正案	-7584
eals	-7585
▁UNO	-7586
▁beaut	-7587
▁phone	-7588
▁degrad	-7589
▁endorsed	-7590
etermination	-7591
bi	-7592
人居	-7593
女儿	-7594
生殖	-7595
▁有些	-7596
所有的	-7597
▁ones	-7598
▁invent	-7599
▁reducing	-7600
▁collection	-7601
IG	-7602
在本	-7603
塞拜	-7604
开支	-7605
time	-7606
塞尔维亚	-7607
▁Status	-7608
▁indicate	-7609
▁whatever	-7610
巨大	-7611
eff	-7612
▁La	-7613
塞拜疆	-7614
条规定	-7615
的会议	-7616
该区域	-7617
▁30.	-7618
▁farm	-7619
▁adapt	-7620
ndering	-7621
▁Sweden	-7622
▁values	-7623
▁Prosecutor	-7624
ka	-7625
例子	-7626
回答	-7627
严重的	-7628
程度上	-7629
reet	-7630
▁Hoc	-7631
▁deg	-7632
▁news	-7633
▁prol	-7634
▁2007.	-7635
▁marine	-7636
▁Philipp	-7637
▁Training	-7638
WP	-7639
探讨	-7640
潜在	-7641
用来	-7642
融入	-7643
驱逐	-7644
▁dad	-7645
▁bound	-7646
国际人道主义法	-7647
▁supposed	-7648
▁Technology	-7649
一体	-7650
▁先生	-7651
▁(1)	-7652
设立一个	-7653
nergy	-7654
▁kids	-7655
▁2008.	-7656
▁failure	-7657
▁records	-7658
▁Ethiopia	-7659
▁eradication	-7660
克斯	-7661
处罚	-7662
夫人	-7663
▁59	-7664
▁Lu	-7665
▁你会	-7666
儿童和	-7667
Corr	-7668
五届会议	-7669
▁multi	-7670
▁Spanish	-7671
▁meaning	-7672
▁outstanding	-7673
年前	-7674
更新	-7675
重要的是	-7676
▁centre	-7677
▁beautiful	-7678
▁territorial	-7679
▁都	-7680
了我	-7681
出售	-7682
指挥	-7683
意识到	-7684
条草案	-7685
▁29.	-7686
▁lic	-7687
▁Food	-7688
▁ball	-7689
▁unem	-7690
▁wind	-7691
iously	-7692
▁outer	-7693
ections	-7694
▁modern	-7695
▁Encoura	-7696
▁Project	-7697
▁resulted	-7698
▁speaking	-7699
回应	-7700
总理	-7701
razy	-7702
家庭暴力	-7703
1999)	-7704
▁Rule	-7705
friend	-7706
▁exact	-7707
oration	-7708
▁couldn	-7709
▁Control	-7710
▁command	-7711
continued	-7712
▁outcomes	-7713
▁strongly	-7714
之下	-7715
▁他说	-7716
▁建议	-7717
代表的	-7718
的全球	-7719
uses	-7720
▁swe	-7721
▁你可以	-7722
voire	-7723
▁send	-7724
astern	-7725
▁advis	-7726
▁engage	-7727
▁Nigeria	-7728
▁Document	-7729
▁internally	-7730
融资	-7731
ioned	-7732
▁flex	-7733
▁gross	-7734
▁mainly	-7735
▁offence	-7736
▁preventing	-7737
▁并	-7738
口头	-7739
年底	-7740
教训	-7741
逐步	-7742
▁你还	-7743
人民的	-7744
和国家	-7745
▁Den	-7746
olute	-7747
▁fuel	-7748
alization	-7749
危害	-7750
可靠	-7751
审评	-7752
捷克	-7753
秩序	-7754
道德	-7755
雇员	-7756
ott	-7757
国际人权	-7758
前南斯拉夫	-7759
Ivoire	-7760
回去	-7761
婚姻	-7762
惯例	-7763
某种	-7764
科技	-7765
ply	-7766
▁vo	-7767
▁正如	-7768
▁LDC	-7769
▁Nam	-7770
执行主任	-7771
▁OHCHR	-7772
▁chance	-7773
▁facing	-7774
▁thirty	-7775
▁functioning	-7776
▁mainstreaming	-7777
减贫	-7778
分类	-7779
引渡	-7780
教科	-7781
极为	-7782
Pro	-7783
▁5,	-7784
环境署	-7785
的资金	-7786
▁Ken	-7787
ophob	-7788
▁felt	-7789
非正式协商	-7790
▁waste	-7791
促使	-7792
和不	-7793
表达	-7794
/18	-7795
▁他們	-7796
▁我可以	-7797
提出报告	-7798
▁Turk	-7799
▁affect	-7800
▁condem	-7801
▁decide	-7802
并对	-7803
▁36	-7804
世界上	-7805
目前的	-7806
▁blood	-7807
▁price	-7808
▁granted	-7809
▁networks	-7810
▁insolvency	-7811
98	-7812
哥维	-7813
废物	-7814
怎麼	-7815
毛里	-7816
▁pi	-7817
塞哥维	-7818
▁owing	-7819
▁offences	-7820
有点	-7821
akh	-7822
greg	-7823
▁Hol	-7824
▁Sing	-7825
▁depos	-7826
▁remin	-7827
acement	-7828
▁element	-7829
将是	-7830
http	-7831
idency	-7832
▁Partic	-7833
▁deliver	-7834
▁nations	-7835
▁existence	-7836
▁populations	-7837
▁satisfaction	-7838
回事	-7839
实践	-7840
所在	-7841
报表	-7842
的小	-7843
▁Pa	-7844
在国际	-7845
除其他	-7846
▁28.	-7847
/2002	-7848
▁Only	-7849
▁unit	-7850
▁zone	-7851
respond	-7852
▁Decade	-7853
▁severe	-7854
▁learned	-7855
▁recorded	-7856
▁dangerous	-7857
▁integrity	-7858
▁sovereignty	-7859
▁participating	-7860
▁导	-7861
晚上	-7862
期望	-7863
正义	-7864
津贴	-7865
▁47	-7866
▁ap	-7867
▁许多	-7868
上文第	-7869
了一项	-7870
和安全	-7871
葡萄牙	-7872
▁San	-7873
▁Sea	-7874
武器和轻武器	-7875
▁contains	-7876
住区	-7877
经历	-7878
imb	-7879
的环境	-7880
▁Say	-7881
▁Sure	-7882
▁fost	-7883
▁我们认为	-7884
和黑塞哥维	-7885
▁quite	-7886
▁stock	-7887
▁works	-7888
▁特别报告员	-7889
▁Morocco	-7890
▁correct	-7891
▁details	-7892
波斯尼亚和黑塞哥维	-7893
▁applications	-7894
国防	-7895
洗钱	-7896
相应	-7897
ôte	-7898
▁最近	-7899
残疾人	-7900
▁300	-7901
▁Eff	-7902
Signed	-7903
fourth	-7904
▁carrying	-7905
▁reservation	-7906
determination	-7907
▁significantly	-7908
As	-7909
▁最	-7910
也有	-7911
宝贝	-7912
秘鲁	-7913
高专	-7914
airo	-7915
raid	-7916
▁以色列	-7917
▁pack	-7918
▁Audit	-7919
rateful	-7920
▁science	-7921
▁assessed	-7922
▁creating	-7923
▁observers	-7924
▁supplement	-7925
DG	-7926
妻子	-7927
安保	-7928
los	-7929
▁32	-7930
打电话	-7931
▁pict	-7932
行政和预算	-7933
▁Forms	-7934
▁count	-7935
提高妇女地位	-7936
▁failed	-7937
▁thanks	-7938
▁resolve	-7939
▁您	-7940
关心	-7941
定居	-7942
▁Kh	-7943
▁加强	-7944
履行其	-7945
性武器	-7946
▁bed	-7947
erted	-7948
etary	-7949
geria	-7950
▁1994	-7951
▁lawy	-7952
▁evalu	-7953
▁estimates	-7954
▁transactions	-7955
不在	-7956
看见	-7957
CRP	-7958
问题上	-7959
▁Tun	-7960
社会发展	-7961
ients	-7962
▁Belg	-7963
theless	-7964
▁explos	-7965
▁sought	-7966
拉丁美洲和加勒比	-7967
▁Questions	-7968
(1	-7969
因而	-7970
志愿	-7971
某一	-7972
渔业	-7973
经营	-7974
设想	-7975
▁49	-7976
在执行	-7977
▁IAEA	-7978
委员会成员	-7979
▁worth	-7980
▁search	-7981
▁enjoyment	-7982
巴布	-7983
确立	-7984
自决	-7985
销毁	-7986
law	-7987
使用的	-7988
讨论了	-7989
韩民国	-7990
一般事务	-7991
▁seems	-7992
▁comply	-7993
▁equitable	-7994
波斯尼亚和黑塞哥维那	-7995
▁approximately	-7996
LO	-7997
▁能	-7998
后来	-7999
怀疑	-8000
相比	-8001
COP	-8002
anz	-8003
▁61	-8004
合作的	-8005
▁Sur	-8006
iginal	-8007
▁radio	-8008
▁sched	-8009
▁被	-8010
.1.	-8011
rey	-8012
▁同上	-8013
和加强	-8014
商定的	-8015
权利的	-8016
zech	-8017
▁(2)	-8018
▁foot	-8019
▁choice	-8020
▁histor	-8021
▁trends	-8022
▁Chapter	-8023
▁Welcomes	-8024
Commission	-8025
▁acknowled	-8026
▁requirement	-8027
二十	-8028
创新	-8029
备忘	-8030
好处	-8031
祝贺	-8032
荒漠	-8033
适合	-8034
bat	-8035
候选人	-8036
rust	-8037
▁31.	-8038
anmar	-8039
▁Cost	-8040
伊斯兰共和国	-8041
▁moving	-8042
▁prices	-8043
▁defence	-8044
▁advisory	-8045
▁candidates	-8046
共体	-8047
审理	-8048
效果	-8049
纪念	-8050
设法	-8051
▁IM	-8052
备忘录	-8053
存在的	-8054
高专办	-8055
千年宣言	-8056
▁trou	-8057
iating	-8058
▁banks	-8059
▁release	-8060
▁published	-8061
▁expenditures	-8062
证实	-8063
/27	-8064
emb	-8065
▁Lib	-8066
▁saving	-8067
▁entered	-8068
▁pointed	-8069
▁governments	-8070
▁considerable	-8071
两项	-8072
合并	-8073
恶化	-8074
的大	-8075
oral	-8076
无核武器	-8077
▁Haiti	-8078
▁liability	-8079
▁constructive	-8080
东道	-8081
出生	-8082
拉斯	-8083
民众	-8084
玻利	-8085
真是	-8086
▁AN	-8087
▁下午	-8088
捐助者	-8089
iver	-8090
▁Put	-8091
eared	-8092
oming	-8093
uties	-8094
▁Desp	-8095
▁mort	-8096
▁grave	-8097
▁explain	-8098
▁promise	-8099
▁Developing	-8100
▁considering	-8101
▁realization	-8102
以往	-8103
列颠	-8104
复员	-8105
▁IT	-8106
的关于	-8107
oliv	-8108
▁huh	-8109
▁mal	-8110
信息技术	-8111
limin	-8112
▁Insp	-8113
▁Thus	-8114
asures	-8115
▁Staff	-8116
▁Excell	-8117
▁survey	-8118
EL	-8119
从来	-8120
听取	-8121
细则	-8122
iii	-8123
▁我说	-8124
它们的	-8125
小岛屿	-8126
肯尼亚	-8127
▁exec	-8128
▁pled	-8129
undred	-8130
▁Saudi	-8131
▁Principles	-8132
类型	-8133
转型	-8134
难道	-8135
孟加拉	-8136
▁Rem	-8137
Secret	-8138
▁added	-8139
▁Refugees	-8140
▁authorized	-8141
到底	-8142
失去	-8143
死刑	-8144
遵循	-8145
里面	-8146
▁45	-8147
fect	-8148
▁cat	-8149
ifest	-8150
ordan	-8151
▁cult	-8152
▁luck	-8153
▁Drugs	-8154
▁dream	-8155
enophob	-8156
▁Fourth	-8157
▁superv	-8158
▁setting	-8159
▁Movement	-8160
▁Population	-8161
▁completion	-8162
▁transparent	-8163
▁加	-8164
▁给	-8165
仇外	-8166
涵盖	-8167
rap	-8168
▁你能	-8169
▁只要	-8170
的费用	-8171
iciary	-8172
conflict	-8173
▁sustained	-8174
衣服	-8175
lim	-8176
》、《	-8177
的数据	-8178
▁我们要	-8179
aysia	-8180
▁Fuck	-8181
▁Last	-8182
▁chair	-8183
▁Uganda	-8184
▁deploy	-8185
▁calling	-8186
仅仅	-8187
情形	-8188
自身	-8189
豁免	-8190
除非	-8191
我们在	-8192
副秘书长	-8193
iling	-8194
▁Côte	-8195
/2001/	-8196
▁arising	-8197
丈夫	-8198
▁那个	-8199
和方案	-8200
并不是	-8201
room	-8202
▁Open	-8203
▁Power	-8204
▁mobil	-8205
▁vital	-8206
▁Maurit	-8207
▁became	-8208
▁lessons	-8209
▁competent	-8210
▁components	-8211
▁respectively	-8212
88	-8213
哈拉	-8214
帮我	-8215
不列颠	-8216
▁YOU	-8217
▁bat	-8218
▁tim	-8219
▁crazy	-8220
▁highly	-8221
▁daughter	-8222
▁grateful	-8223
▁suffering	-8224
他在	-8225
分庭	-8226
常规	-8227
必须在	-8228
收到的	-8229
▁Fac	-8230
经济增长	-8231
采取的措施	-8232
▁intention	-8233
▁highlighted	-8234
坚定	-8235
相对	-8236
约旦	-8237
bai	-8238
的必要	-8239
真正的	-8240
经常预算	-8241
自然资源	-8242
baijan	-8243
▁shoot	-8244
zerbaijan	-8245
▁correspond	-8246
PC	-8247
攸关	-8248
他妈的	-8249
对这些	-8250
▁本报告	-8251
北爱尔兰	-8252
罗马尼亚	-8253
▁schem	-8254
▁Myanmar	-8255
▁availability	-8256
想法	-8257
英文	-8258
▁Che	-8259
▁Set	-8260
▁repe	-8261
▁Indigenous	-8262
两国	-8263
小姐	-8264
注重	-8265
建立了	-8266
的需要	-8267
▁Mus	-8268
▁names	-8269
▁afford	-8270
▁afraid	-8271
▁spread	-8272
▁amended	-8273
▁century	-8274
▁category	-8275
吸引	-8276
深入	-8277
澄清	-8278
▁51	-8279
▁其中	-8280
▁抱歉	-8281
此同时	-8282
▁Peru	-8283
▁gradu	-8284
▁socio	-8285
▁Despite	-8286
▁Georgia	-8287
▁changed	-8288
▁minorities	-8289
▁巴	-8290
寻找	-8291
法规	-8292
认可	-8293
▁Gh	-8294
▁有关	-8295
公务员	-8296
发了言	-8297
的战略	-8298
▁distin	-8299
liminary	-8300
▁direction	-8301
▁。	-8302
你要	-8303
刚刚	-8304
在内	-8305
大幅	-8306
▁这项	-8307
问题和	-8308
aled	-8309
adesh	-8310
▁tour	-8311
itoring	-8312
▁acting	-8313
▁Austria	-8314
▁sometimes	-8315
▁已	-8316
营养	-8317
atem	-8318
▁died	-8319
审计委员会	-8320
istent	-8321
▁pregn	-8322
▁dispos	-8323
▁thereby	-8324
▁believes	-8325
▁bringing	-8326
▁formulation	-8327
内瑞	-8328
差异	-8329
▁CE	-8330
▁没错	-8331
委内瑞	-8332
法律和	-8333
突尼斯	-8334
este	-8335
取得进展	-8336
白俄罗斯	-8337
2000)	-8338
▁hurt	-8339
ansion	-8340
ladesh	-8341
▁咨询委员会	-8342
▁Congress	-8343
▁soldiers	-8344
一天	-8345
斯特	-8346
的条件	-8347
监督厅	-8348
贸易法	-8349
▁beg	-8350
▁dim	-8351
▁god	-8352
卫生组织	-8353
委内瑞拉	-8354
非洲发展	-8355
▁dign	-8356
▁prem	-8357
▁Urges	-8358
▁theme	-8359
ressing	-8360
▁minute	-8361
常驻联合国代表	-8362
▁pleased	-8363
▁drafting	-8364
▁新	-8365
装备	-8366
▁53	-8367
▁人权	-8368
cean	-8369
unte	-8370
▁ain	-8371
▁gas	-8372
专门机构	-8373
以及其他	-8374
先生阁下	-8375
▁listed	-8376
▁congrat	-8377
▁numbers	-8378
ventional	-8379
▁headquarters	-8380
▁中	-8381
▁卡	-8382
▁由	-8383
危地	-8384
见到	-8385
长的	-8386
一个人	-8387
的人道	-8388
free	-8389
▁Tod	-8390
危地马拉	-8391
▁Guid	-8392
▁save	-8393
▁married	-8394
▁seeking	-8395
▁Independ	-8396
▁expenses	-8397
▁expression	-8398
▁incorporated	-8399
▁用	-8400
冲突后	-8401
的程序	-8402
ster	-8403
四届会议	-8404
外交部长	-8405
特派团的	-8406
inced	-8407
▁shot	-8408
▁entity	-8409
▁wishes	-8410
小武器和轻武器	-8411
▁Croatia	-8412
▁sharing	-8413
▁introduction	-8414
习惯	-8415
尊严	-8416
报道	-8417
.9/	-8418
▁听着	-8419
债权人	-8420
book	-8421
ylum	-8422
▁Mom	-8423
▁mer	-8424
Chair	-8425
▁path	-8426
illing	-8427
teenth	-8428
unicip	-8429
▁strict	-8430
▁message	-8431
▁amendment	-8432
▁concluding	-8433
▁presentation	-8434
HP	-8435
▁五	-8436
衡量	-8437
▁mist	-8438
usalem	-8439
▁commod	-8440
伊朗伊斯兰共和国	-8441
Secretary	-8442
▁produced	-8443
▁facilitating	-8444
▁x	-8445
以法	-8446
大大	-8447
泰国	-8448
药品	-8449
HRC	-8450
amn	-8451
▁52	-8452
▁小组	-8453
▁应该	-8454
你们的	-8455
建议的	-8456
item	-8457
▁35.	-8458
▁事实上	-8459
eline	-8460
human	-8461
▁webs	-8462
▁briefing	-8463
▁Promotion	-8464
▁Ministerial	-8465
规约	-8466
yan	-8467
在哪里	-8468
▁ded	-8469
环境规划署	-8470
uction	-8471
▁faced	-8472
▁obstacles	-8473
▁categories	-8474
▁啊	-8475
职等	-8476
ula	-8477
▁快点	-8478
▁来吧	-8479
核裁军	-8480
arus	-8481
马来西亚	-8482
aging	-8483
▁charge	-8484
▁transit	-8485
▁extensive	-8486
▁responses	-8487
▁像	-8488
化和	-8489
可在	-8490
你知道	-8491
比利时	-8492
ware	-8493
▁slow	-8494
▁Small	-8495
▁Portug	-8496
▁unable	-8497
aundering	-8498
▁amendments	-8499
▁conformity	-8500
▁constitutional	-8501
三年	-8502
房子	-8503
监察	-8504
秘密	-8505
终止	-8506
编号	-8507
ael	-8508
enez	-8509
▁Gre	-8510
▁Sever	-8511
▁empower	-8512
IM	-8513
产权	-8514
克服	-8515
是的	-8516
款项	-8517
说话	-8518
身体	-8519
附件二	-8520
▁embar	-8521
▁interim	-8522
▁nationality	-8523
业绩	-8524
回到	-8525
备选	-8526
所谓	-8527
手册	-8528
都会	-8529
限于	-8530
▁70	-8531
和有关	-8532
▁copy	-8533
▁topic	-8534
官方发展援助	-8535
▁belief	-8536
▁comput	-8537
▁Resolution	-8538
▁Recognizing	-8539
▁maintaining	-8540
否则	-8541
泊尔	-8542
相反	-8543
职务	-8544
fsc	-8545
▁他是	-8546
的讨论	-8547
第六十	-8548
fscx	-8549
fscy	-8550
▁Use	-8551
▁1998,	-8552
▁sleep	-8553
▁assign	-8554
▁instead	-8555
▁opening	-8556
▁Jerusalem	-8557
OL	-8558
参考	-8559
耶路	-8560
什么事	-8561
尼泊尔	-8562
▁mit	-8563
atell	-8564
大规模毁灭	-8565
▁heads	-8566
行政和预算问题	-8567
▁Algeria	-8568
83	-8569
ze	-8570
受理	-8571
四个	-8572
撒冷	-8573
向委员会	-8574
耶路撒冷	-8575
▁委员会建议	-8576
▁societ	-8577
信息和通信技术	-8578
▁offered	-8579
mentioned	-8580
▁Additional	-8581
▁accounting	-8582
▁Reaffirming	-8583
▁agriculture	-8584
男孩	-8585
进去	-8586
长官	-8587
oma	-8588
▁他的	-8589
▁dro	-8590
▁AIDS	-8591
▁LDCs	-8592
▁learn	-8593
人权和基本自由	-8594
Am	-8595
主动	-8596
学院	-8597
而不	-8598
见过	-8599
/23	-8600
教科文	-8601
▁unp	-8602
武装部队	-8603
ports	-8604
sight	-8605
▁game	-8606
▁race	-8607
预防犯罪和	-8608
▁valid	-8609
▁legitimate	-8610
▁艾	-8611
很难	-8612
里的	-8613
You	-8614
rah	-8615
这两个	-8616
uela	-8617
我国代表团	-8618
▁Czech	-8619
▁Jordan	-8620
▁aggress	-8621
▁Azerbaijan	-8622
Ar	-8623
他是	-8624
元首	-8625
当选	-8626
款的	-8627
证人	-8628
铭记	-8629
了关于	-8630
可能是	-8631
境内的	-8632
权利和	-8633
▁34.	-8634
的人道主义	-8635
ennial	-8636
rators	-8637
▁partner	-8638
▁dissemination	-8639
pd	-8640
就像	-8641
开会	-8642
提醒	-8643
灭绝	-8644
麻烦	-8645
密切合作	-8646
ritre	-8647
urrent	-8648
人道主义援助	-8649
▁Taking	-8650
▁leaving	-8651
terrorism	-8652
▁identity	-8653
▁migrants	-8654
▁Philippines	-8655
体现	-8656
很快	-8657
来看	-8658
爱你	-8659
类别	-8660
仍然是	-8661
8080	-8662
▁33.	-8663
▁Pap	-8664
没有任何	-8665
获得通过	-8666
这方面的	-8667
▁Does	-8668
议事规则第	-8669
ivered	-8670
▁pattern	-8671
enophobia	-8672
▁enabling	-8673
▁considers	-8674
▁subprogramme	-8675
位置	-8676
对待	-8677
薪金	-8678
uro	-8679
示范法	-8680
ague	-8681
ibly	-8682
▁32.	-8683
osing	-8684
▁Guatem	-8685
▁Several	-8686
▁dispute	-8687
▁Malaysia	-8688
▁targeted	-8689
▁Initiative	-8690
▁Monitoring	-8691
▁determination	-8692
一条	-8693
敏感	-8694
条文	-8695
讲话	-8696
马上	-8697
asc	-8698
和促进	-8699
orse	-8700
▁aud	-8701
阿塞拜疆	-8702
▁Land	-8703
▁stra	-8704
▁fifth	-8705
▁flows	-8706
▁guide	-8707
▁figure	-8708
▁ratified	-8709
▁thematic	-8710
▁preparatory	-8711
UR	-8712
军备	-8713
发布	-8714
害怕	-8715
每天	-8716
iri	-8717
的研究	-8718
ares	-8719
重返社会	-8720
▁Finland	-8721
▁registered	-8722
▁Palestinians	-8723
不想	-8724
收益	-8725
要素	-8726
退休	-8727
通讯	-8728
Sub	-8729
基础上	-8730
协商一致	-8731
少数群体	-8732
恐怖分子	-8733
▁Main	-8734
▁analy	-8735
▁panel	-8736
▁himself	-8737
▁interpretation	-8738
▁打	-8739
不对	-8740
了吧	-8741
免费	-8742
在那	-8743
混蛋	-8744
进来	-8745
食品	-8746
高等	-8747
/54	-8748
▁需要	-8749
海洋法	-8750
的审议	-8751
atri	-8752
号决议所	-8753
rolled	-8754
▁envis	-8755
▁frequ	-8756
▁meant	-8757
▁margin	-8758
▁nation	-8759
▁waiting	-8760
▁expansion	-8761
▁commissions	-8762
▁经	-8763
可行	-8764
和对	-8765
排除	-8766
照片	-8767
附近	-8768
一系列	-8769
主要是	-8770
并确保	-8771
▁mus	-8772
▁谢谢你	-8773
除其他外	-8774
▁Hold	-8775
促进和保护	-8776
▁troops	-8777
________	-8778
▁amounts	-8779
▁hundred	-8780
▁worldwide	-8781
▁人	-8782
具备	-8783
十字	-8784
短期	-8785
hel	-8786
与合作	-8787
在那里	-8788
安全的	-8789
现有的	-8790
的一种	-8791
▁ult	-8792
▁web	-8793
采取的行动	-8794
▁Paris	-8795
▁Belgium	-8796
▁governing	-8797
▁invitation	-8798
▁subsidiary	-8799
▁preliminary	-8800
cl	-8801
”)	-8802
方的	-8803
结盟	-8804
▁很好	-8805
有机会	-8806
方面发挥	-8807
gency	-8808
及北爱尔兰	-8809
▁award	-8810
▁purch	-8811
▁notice	-8812
▁Communic	-8813
▁constrain	-8814
场所	-8815
成绩	-8816
各区域	-8817
说什么	-8818
▁hun	-8819
▁depr	-8820
▁nine	-8821
▁pick	-8822
沙特阿拉伯	-8823
阿尔及利亚	-8824
▁shows	-8825
▁conting	-8826
▁payments	-8827
▁disasters	-8828
▁unilateral	-8829
-6	-8830
声称	-8831
职权	-8832
行业	-8833
过了	-8834
释放	-8835
ena	-8836
所有人	-8837
epal	-8838
利益攸关	-8839
uable	-8840
▁Tunis	-8841
▁began	-8842
▁prosp	-8843
不列颠及北爱尔兰	-8844
▁Therefore	-8845
▁terrorists	-8846
▁experiences	-8847
入侵	-8848
补贴	-8849
估计数	-8850
▁sort	-8851
▁Eritre	-8852
▁forget	-8853
▁remind	-8854
▁Supreme	-8855
▁Following	-8856
▁budgetary	-8857
DI	-8858
.12	-8859
ike	-8860
▁62	-8861
ESCO	-8862
rier	-8863
▁dog	-8864
house	-8865
/2002/	-8866
ailand	-8867
▁Agric	-8868
▁behav	-8869
▁Excuse	-8870
▁Consult	-8871
▁acceler	-8872
▁produce	-8873
▁observed	-8874
▁containing	-8875
96	-8876
日起	-8877
時候	-8878
观念	-8879
重复	-8880
dep	-8881
联合会	-8882
人类住区	-8883
孟加拉国	-8884
消除贫穷	-8885
裁军谈判	-8886
▁aims	-8887
▁poll	-8888
▁teacher	-8889
信贷	-8890
出于	-8891
名额	-8892
生存	-8893
人权的	-8894
▁Him	-8895
aught	-8896
▁Mart	-8897
▁size	-8898
▁reven	-8899
打击恐怖主义	-8900
▁linked	-8901
minister	-8902
▁controls	-8903
▁numerous	-8904
▁preparing	-8905
................	-8906
84	-8907
不好	-8908
巴黎	-8909
有时	-8910
每一	-8911
400	-8912
ked	-8913
▁44	-8914
▁80	-8915
养恤金	-8916
▁explan	-8917
iversity	-8918
▁geographical	-8919
世贸	-8920
南南	-8921
哥拉	-8922
清洁	-8923
立特	-8924
还将	-8925
ata	-8926
▁截至	-8927
可以在	-8928
措施的	-8929
ches	-8930
▁37.	-8931
▁400	-8932
▁我希望	-8933
onial	-8934
▁sentence	-8935
▁delivered	-8936
也在	-8937
几年	-8938
▁33	-8939
▁大家	-8940
▁就像	-8941
▁执行	-8942
向大会	-8943
itime	-8944
atically	-8945
▁Invites	-8946
▁restrictions	-8947
85	-8948
卖淫	-8949
南亚	-8950
迹象	-8951
eav	-8952
被视为	-8953
Part	-8954
▁Occ	-8955
igence	-8956
▁Kenya	-8957
▁Venez	-8958
▁advantage	-8959
了对	-8960
百分	-8961
简要	-8962
emy	-8963
pan	-8964
▁非洲	-8965
撒哈拉	-8966
down	-8967
▁我现在	-8968
年度报告	-8969
▁bear	-8970
▁hate	-8971
ecific	-8972
▁hoped	-8973
▁train	-8974
▁asylum	-8975
▁minister	-8976
▁Excellency	-8977
▁拜	-8978
你会	-8979
坚决	-8980
就能	-8981
文明	-8982
生育	-8983
任何人	-8984
并鼓励	-8985
所需的	-8986
的目的	-8987
仇外心理	-8988
▁shel	-8989
▁Family	-8990
▁helping	-8991
▁Lebanese	-8992
▁secondary	-8993
▁Scientific	-8994
交给	-8995
北部	-8996
博士	-8997
士兵	-8998
掌握	-8999
海关	-9000
里斯	-9001
▁没事	-9002
▁看看	-9003
我们必须	-9004
巴勒斯坦领土	-9005
▁attrib	-9006
▁exceed	-9007
作出决定	-9008
大韩民国	-9009
Leste	-9010
▁sell	-9011
▁Model	-9012
▁Having	-9013
▁impunity	-9014
▁settlements	-9015
▁identification	-9016
何种	-9017
IOS	-9018
▁OF	-9019
和协调	-9020
aily	-9021
road	-9022
▁Des	-9023
目前正在	-9024
▁reve	-9025
▁Serbia	-9026
▁visits	-9027
▁Universal	-9028
▁Bangladesh	-9029
不列颠及北爱尔兰联合王国	-9030
-7	-9031
五年	-9032
刚才	-9033
北京	-9034
多尔	-9035
届会	-9036
言论	-9037
Ter	-9038
▁再见	-9039
了一些	-9040
劳动力	-9041
▁Bah	-9042
▁第五十	-9043
▁doubt	-9044
▁burden	-9045
lication	-9046
▁ownership	-9047
人权事务高级专员办事处	-9048
▁Accordingly	-9049
发射	-9050
年和	-9051
斯里	-9052
路线	-9053
gen	-9054
分区域	-9055
厄立特	-9056
根据第	-9057
生活在	-9058
的进展	-9059
达成的	-9060
▁Moh	-9061
金融机构	-9062
licit	-9063
▁Corr	-9064
▁normal	-9065
▁database	-9066
▁seriously	-9067
89	-9068
ek	-9069
▁布	-9070
与其	-9071
政党	-9072
效益	-9073
隔离	-9074
飞行	-9075
oud	-9076
的经验	-9077
▁39.	-9078
暴力侵害	-9079
捷克共和国	-9080
▁Energy	-9081
▁reasonable	-9082
也会	-9083
对付	-9084
强奸	-9085
正规	-9086
迫切	-9087
ita	-9088
的人口	-9089
管理局	-9090
经费的	-9091
▁(19	-9092
▁Summ	-9093
不扩散条约	-9094
厄立特里亚	-9095
▁drawn	-9096
▁秘书长关于	-9097
▁latter	-9098
▁maximum	-9099
▁attended	-9100
ga	-9101
取代	-9102
多年	-9103
客户	-9104
时至	-9105
谈谈	-9106
ino	-9107
在这一	-9108
的人权	-9109
的内容	-9110
的区域	-9111
的生活	-9112
的范围	-9113
面临的	-9114
▁rob	-9115
国际法院	-9116
解除武装	-9117
▁kept	-9118
▁lose	-9119
/2000/	-9120
▁teams	-9121
▁troop	-9122
▁believed	-9123
▁executive	-9124
SA	-9125
灾难	-9126
現在	-9127
的那	-9128
购买	-9129
附加	-9130
随时	-9131
▁CD	-9132
▁kn	-9133
▁妈妈	-9134
有义务	-9135
ingu	-9136
▁Pur	-9137
▁Task	-9138
人民共和国	-9139
anging	-9140
▁board	-9141
ivation	-9142
▁Belarus	-9143
亚美	-9144
het	-9145
▁90	-9146
单方面	-9147
的有效	-9148
ican	-9149
▁36.	-9150
▁fed	-9151
▁我不想	-9152
▁Today	-9153
▁surve	-9154
▁widely	-9155
▁Account	-9156
▁Statute	-9157
大规模毁灭性武器	-9158
▁absolute	-9159
▁identifying	-9160
▁开	-9161
▁非	-9162
事先	-9163
兰卡	-9164
最新	-9165
有益	-9166
杀害	-9167
/13	-9168
OPS	-9169
我知道	-9170
亚美尼亚	-9171
ommod	-9172
▁Jack	-9173
▁remark	-9174
▁manifest	-9175
▁sponsors	-9176
▁Budgetary	-9177
▁diversity	-9178
▁signature	-9179
▁Preparatory	-9180
不够	-9181
和在	-9182
▁(1	-9183
▁人们	-9184
的标准	-9185
需要的	-9186
care	-9187
刑事法院	-9188
▁Occup	-9189
▁prejud	-9190
▁dissemin	-9191
▁pressure	-9192
▁certainly	-9193
▁oversight	-9194
初级	-9195
判例	-9196
征聘	-9197
缔结	-9198
补偿	-9199
▁46	-9200
▁是吗	-9201
ason	-9202
like	-9203
▁Poland	-9204
▁Romania	-9205
▁letters	-9206
▁writing	-9207
▁fighting	-9208
▁Guatemala	-9209
▁engagement	-9210
▁investigations	-9211
ox	-9212
混合	-9213
着手	-9214
速度	-9215
.18	-9216
▁42	-9217
本决议	-9218
tered	-9219
▁Camb	-9220
▁lasting	-9221
▁emissions	-9222
▁Regulations	-9223
▁achievements	-9224
▁喂	-9225
还要	-9226
▁已经	-9227
▁或者	-9228
和政府	-9229
更好的	-9230
的那样	-9231
青少年	-9232
▁sil	-9233
▁我不是	-9234
▁sites	-9235
▁extrad	-9236
▁concent	-9237
▁dignity	-9238
▁circulated	-9239
▁statistical	-9240
亚太	-9241
任意	-9242
年在	-9243
/50	-9244
▁世界	-9245
▁那些	-9246
▁Dan	-9247
咨询意见	-9248
最佳做法	-9249
arcot	-9250
▁fast	-9251
▁pursue	-9252
▁keeping	-9253
▁diseases	-9254
▁initiated	-9255
,"	-9256
交付	-9257
京都	-9258
别人	-9259
各位	-9260
基准	-9261
提名	-9262
有个	-9263
穆斯	-9264
视察	-9265
以及对	-9266
可能的	-9267
存在着	-9268
▁bud	-9269
▁gap	-9270
▁pil	-9271
ambia	-9272
▁Frank	-9273
▁Common	-9274
▁accommod	-9275
▁instance	-9276
▁obtained	-9277
▁recalled	-9278
▁background	-9279
▁consumption	-9280
▁departments	-9281
No	-9282
oo	-9283
物品	-9284
▁PR	-9285
▁我没	-9286
报告第	-9287
让我们	-9288
vert	-9289
▁squ	-9290
ulating	-9291
▁Arabia	-9292
▁委员会注意到	-9293
问题特别报告员	-9294
▁Contract	-9295
▁Thailand	-9296
▁original	-9297
▁electoral	-9298
obilization	-9299
▁differences	-9300
摘要	-9301
是由	-9302
格的	-9303
特点	-9304
▁在此	-9305
经委会	-9306
预防和	-9307
▁Jes	-9308
▁etc	-9309
斯里兰卡	-9310
aining	-9311
geting	-9312
▁polit	-9313
▁anymore	-9314
▁running	-9315
▁station	-9316
82	-9317
例外	-9318
内陆	-9319
流行	-9320
监禁	-9321
orge	-9322
▁bra	-9323
其他国家	-9324
决定草案	-9325
akers	-9326
教科文组织	-9327
秘书长的报告	-9328
sequently	-9329
▁assisting	-9330
▁principal	-9331
TS	-9332
地理	-9333
塔尔	-9334
导弹	-9335
或有	-9336
把它	-9337
拖延	-9338
至于	-9339
cast	-9340
举行的第	-9341
歧视公约	-9342
▁Armen	-9343
▁Would	-9344
▁examine	-9345
▁hospital	-9346
▁Venezuela	-9347
▁protecting	-9348
▁solidarity	-9349
▁杰	-9350
做到	-9351
加尔	-9352
埔寨	-9353
并请	-9354
排雷	-9355
斯达	-9356
lin	-9357
柬埔寨	-9358
unch	-9359
所述期间	-9360
联合国在	-9361
▁gets	-9362
儿童权利公约	-9363
▁wonder	-9364
▁Denmark	-9365
▁Eastern	-9366
▁exactly	-9367
▁missing	-9368
▁reaffirmed	-9369
▁regulation	-9370
常常	-9371
年至	-9372
用户	-9373
角色	-9374
设立了	-9375
1373	-9376
▁亲爱的	-9377
重要作用	-9378
2006)	-9379
▁Chem	-9380
ectual	-9381
▁ideas	-9382
▁quant	-9383
▁toler	-9384
▁fisher	-9385
▁confident	-9386
▁societies	-9387
▁allocation	-9388
ertification	-9389
".	-9390
95	-9391
推迟	-9392
案例	-9393
装置	-9394
是为了	-9395
▁dig	-9396
▁hoc	-9397
▁我们的	-9398
自然灾害	-9399
▁feed	-9400
▁Again	-9401
▁Angol	-9402
▁Costa	-9403
委员会的工作	-9404
▁duties	-9405
▁excess	-9406
▁website	-9407
▁affecting	-9408
AU	-9409
准确	-9410
厄瓜	-9411
房间	-9412
限度	-9413
▁41	-9414
发基金	-9415
的理由	-9416
世界人权	-9417
厄瓜多尔	-9418
(2002	-9419
▁flow	-9420
▁sole	-9421
▁stri	-9422
▁exped	-9423
▁invite	-9424
▁courses	-9425
▁resumed	-9426
▁secured	-9427
▁condition	-9428
▁Encourages	-9429
▁reproductive	-9430
▁subsequently	-9431
ey	-9432
体育	-9433
区的	-9434
家人	-9435
开幕	-9436
整体	-9437
罗毕	-9438
一体化	-9439
他们在	-9440
方面所	-9441
▁Dav	-9442
orders	-9443
ctional	-9444
▁powers	-9445
▁officer	-9446
▁minority	-9447
▁previously	-9448
▁enterprises	-9449
人人	-9450
永久	-9451
▁首先	-9452
管辖权	-9453
rown	-9454
▁196	-9455
▁COP	-9456
理事会第	-9457
(2005	-9458
▁Nepal	-9459
ectoral	-9460
▁factor	-9461
▁Counter	-9462
▁Particip	-9463
MP	-9464
ón	-9465
以此	-9466
玩笑	-9467
艺术	-9468
萨尔	-9469
遇到	-9470
邻国	-9471
音乐	-9472
ani	-9473
东道国	-9474
冲突的	-9475
更大的	-9476
索赔人	-9477
▁Sit	-9478
▁Tal	-9479
▁ban	-9480
尤其是在	-9481
fortun	-9482
▁older	-9483
▁British	-9484
▁accused	-9485
▁remedies	-9486
riminatory	-9487
▁scheduled	-9488
▁proportion	-9489
▁unemployment	-9490
IK	-9491
先前	-9492
更大	-9493
自我	-9494
fin	-9495
和环境	-9496
和相关	-9497
设立的	-9498
▁我认为	-9499
经济发展	-9500
2003)	-9501
▁multip	-9502
▁binding	-9503
▁assigned	-9504
预防犯罪和刑事司法	-9505
▁corporate	-9506
▁regulatory	-9507
侵略	-9508
前往	-9509
监管	-9510
-10	-9511
反映了	-9512
▁Nic	-9513
▁我不能	-9514
▁alive	-9515
▁black	-9516
isition	-9517
uration	-9518
▁noting	-9519
▁Network	-9520
▁attract	-9521
86	-9522
两名	-9523
全力	-9524
加坡	-9525
动物	-9526
声音	-9527
失败	-9528
时代	-9529
警告	-9530
询问	-9531
BSTA	-9532
▁Pan	-9533
▁din	-9534
▁lay	-9535
ijing	-9536
imize	-9537
uador	-9538
▁grand	-9539
▁disputes	-9540
▁frameworks	-9541
互动	-9542
侧重	-9543
电影	-9544
確是	-9545
钻石	-9546
mon	-9547
tar	-9548
▁EC	-9549
▁吁请	-9550
供应商	-9551
的关系	-9552
/63/	-9553
▁43.	-9554
▁amb	-9555
▁考虑到	-9556
▁acced	-9557
▁cease	-9558
▁coast	-9559
▁Greece	-9560
▁latest	-9561
▁无	-9562
为其	-9563
改为	-9564
教师	-9565
正如	-9566
绑架	-9567
ali	-9568
ann	-9569
bon	-9570
▁haz	-9571
▁mov	-9572
定期报告	-9573
▁UNAM	-9574
专员办事处	-9575
新伙伴关系	-9576
agency	-9577
rength	-9578
▁papers	-9579
▁simply	-9580
▁prevail	-9581
▁updated	-9582
上去	-9583
下文	-9584
共有	-9585
看来	-9586
▁ep	-9587
荒漠化	-9588
omic	-9589
sels	-9590
-2010	-9591
iscal	-9592
▁hour	-9593
▁imped	-9594
▁micro	-9595
▁decent	-9596
▁funded	-9597
▁intolerance	-9598
大不列颠及北爱尔兰联合王国	-9599
▁克	-9600
加剧	-9601
摊款	-9602
概算	-9603
黎加	-9604
哥斯达	-9605
看起来	-9606
▁Att	-9607
▁Bet	-9608
amond	-9609
▁Issu	-9610
▁cold	-9611
▁gives	-9612
赞赏地注意到	-9613
▁(2001)	-9614
▁Safety	-9615
▁degree	-9616
▁humanity	-9617
▁allocated	-9618
▁safeguards	-9619
"?	-9620
▁)	-9621
处决	-9622
实验	-9623
建造	-9624
突出	-9625
董事	-9626
110	-9627
最大的	-9628
kind	-9629
ocal	-9630
▁Got	-9631
▁NPT	-9632
▁map	-9633
erver	-9634
▁Hung	-9635
▁Mich	-9636
▁drop	-9637
locked	-9638
▁drive	-9639
▁coverage	-9640
▁expanded	-9641
▁primarily	-9642
04	-9643
两次	-9644
处境	-9645
粮农	-9646
运人	-9647
还没有	-9648
知识产权	-9649
-2011	-9650
/2006	-9651
ocide	-9652
哥斯达黎加	-9653
届特别会议	-9654
▁harmon	-9655
▁occurred	-9656
▁coordinate	-9657
▁constraints	-9658
▁Peacebuilding	-9659
75	-9660
是一	-9661
麻醉	-9662
收到了	-9663
▁OIOS	-9664
▁Stud	-9665
京都议定书	-9666
▁Boliv	-9667
▁Takes	-9668
贸易法委员会	-9669
▁Eritrea	-9670
▁employees	-9671
▁regularly	-9672
▁目	-9673
加快	-9674
尽量	-9675
月份	-9676
潜力	-9677
说了	-9678
提交了	-9679
是根据	-9680
的成员	-9681
继续努力	-9682
表示关切	-9683
istence	-9684
▁embargo	-9685
小岛屿发展中国家	-9686
▁declared	-9687
▁Resources	-9688
▁maintained	-9689
▁parliament	-9690
▁deliberations	-9691
▁呃	-9692
▁跟	-9693
周期	-9694
男性	-9695
600	-9696
▁爸爸	-9697
死亡率	-9698
穆斯林	-9699
计划的	-9700
quid	-9701
世界各地	-9702
▁1373	-9703
▁stip	-9704
巴勒斯坦人	-9705
airobi	-9706
forced	-9707
▁Three	-9708
▁prompt	-9709
▁Beijing	-9710
▁strength	-9711
▁2006-2007	-9712
▁interview	-9713
▁thousands	-9714
▁и	-9715
不论	-9716
低于	-9717
等等	-9718
▁审查	-9719
怎么办	-9720
次报告	-9721
确定的	-9722
ONUC	-9723
What	-9724
▁38.	-9725
▁42.	-9726
成员名额	-9727
直接投资	-9728
▁Each	-9729
▁dele	-9730
▁milit	-9731
▁looked	-9732
▁trouble	-9733
▁contrary	-9734
▁receiving	-9735
▁designated	-9736
▁systematic	-9737
交通	-9738
加速	-9739
在我	-9740
应急	-9741
接近	-9742
教授	-9743
说过	-9744
使我们	-9745
的协调	-9746
许可证	-9747
▁suc	-9748
号决议中	-9749
▁Earth	-9750
▁built	-9751
unction	-9752
▁Reports	-9753
▁observer	-9754
▁administer	-9755
▁productive	-9756
XV	-9757
早上	-9758
百万	-9759
联网	-9760
gle	-9761
▁一般	-9762
▁特别	-9763
▁给我	-9764
培训和	-9765
影响到	-9766
▁uses	-9767
▁(2002	-9768
▁option	-9769
▁sister	-9770
▁devoted	-9771
▁municip	-9772
▁perfect	-9773
▁examples	-9774
▁supplies	-9775
▁influence	-9776
▁acceptance	-9777
▁consultative	-9778
▁coordinating	-9779
▁verification	-9780
很有	-9781
推广	-9782
犹太	-9783
议员	-9784
ova	-9785
▁43	-9786
▁Ne	-9787
anka	-9788
eurs	-9789
▁怎么了	-9790
▁argu	-9791
▁phen	-9792
贸易和发展	-9793
阿拉伯国家	-9794
ashing	-9795
▁asset	-9796
▁inequ	-9797
权利国际公约	-9798
阿拉伯叙利亚	-9799
▁Cambod	-9800
▁curren	-9801
▁manage	-9802
▁specified	-9803
▁Coordinator	-9804
▁contributing	-9805
bl	-9806
发放	-9807
好像	-9808
800	-9809
强调了	-9810
专家小组	-9811
条约机构	-9812
▁Rica	-9813
▁我们必须	-9814
▁mount	-9815
▁speed	-9816
▁reality	-9817
▁segment	-9818
▁Portugal	-9819
sufficient	-9820
▁difference	-9821
IR	-9822
列的	-9823
显著	-9824
理论	-9825
突然	-9826
▁上午	-9827
▁我能	-9828
▁附件	-9829
apore	-9830
▁1993	-9831
▁sick	-9832
▁Which	-9833
▁vision	-9834
▁returned	-9835
▁protected	-9836
▁guarantees	-9837
▁percentage	-9838
▁withdrawal	-9839
do	-9840
ps	-9841
多种	-9842
快速	-9843
我也	-9844
推进	-9845
订立	-9846
违背	-9847
utr	-9848
▁hy	-9849
▁pe	-9850
▁不用	-9851
开展的	-9852
感兴趣	-9853
桑尼亚	-9854
真主的	-9855
rupt	-9856
▁lie	-9857
▁pet	-9858
给秘书长	-9859
▁jobs	-9860
限成员名额	-9861
▁Kyoto	-9862
▁enact	-9863
▁recip	-9864
▁Emphas	-9865
▁couple	-9866
维持和平行动部	-9867
▁announced	-9868
▁allegations	-9869
▁sustainability	-9870
文本	-9871
送交	-9872
unk	-9873
vak	-9874
提到的	-9875
ding	-9876
▁WTO	-9877
性别观点	-9878
提供支助	-9879
oking	-9880
▁pull	-9881
ouring	-9882
▁Given	-9883
▁Proced	-9884
▁extremely	-9885
▁nationals	-9886
▁examination	-9887
首次	-9888
▁TO	-9889
的管理	-9890
观察团	-9891
back	-9892
▁Was	-9893
▁ign	-9894
各会员国	-9895
的可能性	-9896
行政当局	-9897
▁cell	-9898
▁surpr	-9899
▁finally	-9900
▁realize	-9901
▁accompan	-9902
▁learning	-9903
▁phenomen	-9904
▁resident	-9905
阿拉伯叙利亚共和国	-9906
▁sanitation	-9907
五个	-9908
好吧	-9909
并未	-9910
权和	-9911
比绍	-9912
▁希望	-9913
安哥拉	-9914
的共同	-9915
rees	-9916
▁Cal	-9917
▁认识到	-9918
坦桑尼亚	-9919
▁UNIF	-9920
▁arch	-9921
▁brok	-9922
ivities	-9923
▁Summary	-9924
▁finding	-9925
▁attached	-9926
▁overcome	-9927
▁suffered	-9928
1373(2001)	-9929
▁extension	-9930
▁recognizes	-9931
▁subparagraph	-9932
We	-9933
伐克	-9934
彼此	-9935
留下	-9936
罪犯	-9937
这儿	-9938
巨大的	-9939
未来的	-9940
的人数	-9941
ault	-9942
斯洛伐克	-9943
有关国家	-9944
(2004)	-9945
atures	-9946
▁colle	-9947
▁cycle	-9948
▁favor	-9949
▁nomin	-9950
▁Nairobi	-9951
▁figures	-9952
▁reviews	-9953
▁reiterated	-9954
之二	-9955
有害	-9956
▁他在	-9957
政策的	-9958
的世界	-9959
经济体	-9960
▁Barb	-9961
▁Paul	-9962
urning	-9963
raising	-9964
▁picture	-9965
▁playing	-9966
删除	-9967
对我	-9968
有了	-9969
63-	-9970
▁第五	-9971
▁那你	-9972
当事人	-9973
红十字	-9974
经社会	-9975
▁40.	-9976
▁ILO	-9977
▁Sou	-9978
▁回顾其	-9979
专门知识	-9980
/2005/	-9981
▁Alban	-9982
▁mines	-9983
ossible	-9984
▁valuable	-9985
▁modalities	-9986
仍在	-9987
单一	-9988
负有	-9989
号和第	-9990
的技术	-9991
被认为	-9992
▁AND	-9993
▁bul	-9994
环境基金	-9995
adequ	-9996
▁Mult	-9997
▁Rome	-9998
▁virt	-9999
生物多样性	-10000
▁medic	-10001
essment	-10002
▁adverse	-10003
▁improvements	-10004
暂时	-10005
空缺	-10006
等待	-10007
覆盖	-10008
越南	-10009
/11	-10010
Dec	-10011
▁敦促	-10012
和实施	-10013
是一种	-10014
的事件	-10015
dule	-10016
▁45.	-10017
内部监督	-10018
药物管制	-10019
▁Frid	-10020
▁mere	-10021
hedule	-10022
▁(2005	-10023
▁Lanka	-10024
▁Outer	-10025
▁Overs	-10026
▁Sixth	-10027
▁daily	-10028
▁super	-10029
▁helped	-10030
▁limits	-10031
▁changing	-10032
▁objection	-10033
▁investments	-10034
NA	-10035
削减	-10036
匈牙	-10037
我谨	-10038
残忍	-10039
被占	-10040
匈牙利	-10041
第三次	-10042
resh	-10043
andum	-10044
arter	-10045
▁evil	-10046
▁focal	-10047
orandum	-10048
▁Russia	-10049
▁turned	-10050
▁located	-10051
问题世界首脑会议	-10052
▁decrease	-10053
▁Assistant	-10054
me	-10055
▁十	-10056
协同	-10057
号和	-10058
护理	-10059
▁Mc	-10060
▁各国	-10061
当事方	-10062
报告说	-10063
▁44.	-10064
▁none	-10065
▁trib	-10066
▁urge	-10067
/2003/	-10068
▁Advis	-10069
▁Forces	-10070
▁asking	-10071
atellite	-10072
▁convened	-10073
▁proliferation	-10074
iy	-10075
保存	-10076
对象	-10077
忘了	-10078
承包	-10079
拨款	-10080
车辆	-10081
边境	-10082
pdf	-10083
利比亚	-10084
部分第	-10085
问责制	-10086
▁Val	-10087
urate	-10088
▁Chad	-10089
▁Tanz	-10090
▁Ecuador	-10091
▁exports	-10092
▁Oversight	-10093
▁inclusive	-10094
CD	-10095
争议	-10096
会上	-10097
多了	-10098
求斯	-10099
眼睛	-10100
称为	-10101
设在	-10102
项下	-10103
顺利	-10104
▁文件	-10105
态发展	-10106
捐助国	-10107
都没有	-10108
esty	-10109
fire	-10110
quir	-10111
毛里求斯	-10112
▁Mark	-10113
▁bomb	-10114
▁calc	-10115
▁sale	-10116
▁2009,	-10117
▁voice	-10118
▁Issues	-10119
▁closed	-10120
▁Respons	-10121
▁disappear	-10122
▁mobilization	-10123
▁technological	-10124
▁海	-10125
乍得	-10126
工会	-10127
/15	-10128
以促进	-10129
提交给	-10130
upid	-10131
▁cod	-10132
的缔约国	-10133
abled	-10134
▁imag	-10135
科学和技术	-10136
▁1997,	-10137
▁sweet	-10138
▁endeav	-10139
▁Strategic	-10140
▁confirmed	-10141
It	-10142
▁拿	-10143
▁按	-10144
产出	-10145
界定	-10146
全面的	-10147
加利亚	-10148
受影响	-10149
目标是	-10150
itch	-10151
▁Tom	-10152
▁obv	-10153
财务报表	-10154
货币基金	-10155
burse	-10156
rator	-10157
▁Guide	-10158
▁prefer	-10159
▁largest	-10160
▁Chemical	-10161
▁witnesses	-10162
塞内	-10163
根源	-10164
汇报	-10165
iny	-10166
▁6,	-10167
▁知道	-10168
▁继续	-10169
斯先生	-10170
burg	-10171
▁Del	-10172
▁tit	-10173
▁我没有	-10174
issau	-10175
▁Mond	-10176
▁dear	-10177
▁Angola	-10178
▁Expert	-10179
▁inventory	-10180
▁judiciary	-10181
▁accomplish	-10182
▁transmitted	-10183
▁consolidated	-10184
上了	-10185
不用	-10186
对你	-10187
思想	-10188
联刚	-10189
补助	-10190
该项	-10191
的同时	-10192
ming	-10193
zone	-10194
▁让我们	-10195
保加利亚	-10196
enegal	-10197
▁innoc	-10198
▁lines	-10199
▁yours	-10200
▁unique	-10201
▁voting	-10202
▁seminar	-10203
▁standing	-10204
▁transform	-10205
▁行	-10206
他说	-10207
企图	-10208
近东	-10209
-15	-10210
ped	-10211
via	-10212
以便在	-10213
担保权	-10214
世贸组织	-10215
化学武器	-10216
▁Both	-10217
▁abst	-10218
几内亚比绍	-10219
▁matern	-10220
▁stream	-10221
▁impacts	-10222
▁pension	-10223
▁raising	-10224
▁prosecution	-10225
▁capabilities	-10226
93	-10227
SE	-10228
主张	-10229
任职	-10230
但在	-10231
包容	-10232
▁导言	-10233
▁我得	-10234
成员的	-10235
本届会议	-10236
遗憾的是	-10237
ondon	-10238
tical	-10239
▁Friday	-10240
▁Indust	-10241
▁decade	-10242
▁preced	-10243
▁simple	-10244
▁charges	-10245
▁discipl	-10246
▁restric	-10247
▁serving	-10248
▁telling	-10249
▁introduce	-10250
▁prisoners	-10251
▁Committees	-10252
▁innovative	-10253
▁preventive	-10254
冻结	-10255
暂行	-10256
▁过去	-10257
和服务	-10258
地位的	-10259
文尼亚	-10260
公民权利	-10261
塞内加尔	-10262
开展工作	-10263
▁FCCC	-10264
▁rape	-10265
▁rich	-10266
▁seat	-10267
▁欧洲联盟	-10268
斯洛文尼亚	-10269
▁touch	-10270
▁Racial	-10271
▁exclud	-10272
跨国有组织犯罪	-10273
▁Similar	-10274
▁penalty	-10275
▁becoming	-10276
▁examined	-10277
▁perpetrators	-10278
▁页	-10279
而已	-10280
鼓舞	-10281
any	-10282
iot	-10283
我现在	-10284
该地区	-10285
uine	-10286
性别问题	-10287
Terrorism	-10288
▁everybody	-10289
▁increases	-10290
中小	-10291
为何	-10292
德里	-10293
700	-10294
leb	-10295
oms	-10296
tra	-10297
urb	-10298
▁非常	-10299
宣言和	-10300
▁Mos	-10301
venia	-10302
▁aren	-10303
artial	-10304
▁Jesus	-10305
osystem	-10306
▁Legisl	-10307
▁agency	-10308
▁launch	-10309
▁neither	-10310
▁biological	-10311
▁peacebuilding	-10312
ky	-10313
康复	-10314
杀伤	-10315
pol	-10316
的全面	-10317
load	-10318
▁600	-10319
▁我不会	-10320
条的规定	-10321
▁1992	-10322
▁flag	-10323
之间的关系	-10324
▁Propos	-10325
▁Traffic	-10326
9)	-10327
外面	-10328
始终	-10329
真相	-10330
繁荣	-10331
乌拉圭	-10332
反腐败	-10333
规定了	-10334
▁Sri	-10335
信息系统	-10336
所规定的	-10337
▁acad	-10338
▁util	-10339
▁Camer	-10340
▁disch	-10341
联合国系统各	-10342
organiz	-10343
▁UNESCO	-10344
▁joined	-10345
▁master	-10346
▁savings	-10347
▁Terrorism	-10348
▁relevance	-10349
使之	-10350
受伤	-10351
忽视	-10352
所得	-10353
暂停	-10354
自动	-10355
让他	-10356
遗产	-10357
高的	-10358
/25	-10359
▁VI	-10360
政府在	-10361
▁46.	-10362
▁hum	-10363
建立信任	-10364
under	-10365
arding	-10366
▁dealt	-10367
▁pilot	-10368
▁write	-10369
▁deterior	-10370
▁reflects	-10371
消除对妇女一切形式	-10372
▁Singapore	-10373
▁envisaged	-10374
加上	-10375
ITR	-10376
ein	-10377
▁Up	-10378
▁促进	-10379
▁妇女	-10380
和支持	-10381
ales	-10382
imal	-10383
国家一级	-10384
未经表决	-10385
,2002	-10386
stood	-10387
urban	-10388
▁Bulg	-10389
▁army	-10390
▁born	-10391
▁wall	-10392
▁Found	-10393
▁heavy	-10394
▁homes	-10395
▁strug	-10396
▁danger	-10397
▁doctor	-10398
▁murder	-10399
社会和文化权利	-10400
▁decline	-10401
▁regards	-10402
▁destroyed	-10403
▁competence	-10404
▁Comprehensive	-10405
大力	-10406
最初	-10407
简报	-10408
omp	-10409
就可以	-10410
我们要	-10411
的定义	-10412
oned	-10413
专业人员	-10414
▁Back	-10415
earing	-10416
▁adult	-10417
illions	-10418
▁disease	-10419
▁fishing	-10420
▁jointly	-10421
▁largely	-10422
▁Military	-10423
▁advanced	-10424
▁adaptation	-10425
▁governmental	-10426
74	-10427
92	-10428
一旦	-10429
其在	-10430
同上	-10431
奇怪	-10432
抓住	-10433
.13	-10434
▁我去	-10435
在这儿	-10436
aint	-10437
erce	-10438
▁41.	-10439
▁Kaz	-10440
合作伙伴	-10441
▁stab	-10442
ressed	-10443
▁Ghana	-10444
▁Integ	-10445
▁antic	-10446
▁wished	-10447
▁inadequ	-10448
▁killing	-10449
▁predict	-10450
▁prostitution	-10451
▁只	-10452
》;	-10453
丧失	-10454
书记	-10455
分段	-10456
就要	-10457
应由	-10458
或在	-10459
身上	-10460
转递	-10461
辩护	-10462
eds	-10463
kes	-10464
不平等	-10465
使他们	-10466
受害人	-10467
想知道	-10468
足够的	-10469
提供资金	-10470
-2001	-10471
icing	-10472
lines	-10473
reach	-10474
▁Once	-10475
次全体会议	-10476
ception	-10477
▁Acting	-10478
▁trading	-10479
▁claimant	-10480
▁substances	-10481
关闭	-10482
形势	-10483
着我	-10484
连续	-10485
雇用	-10486
isp	-10487
▁sn	-10488
▁ye	-10489
主席的	-10490
▁PHP	-10491
▁wat	-10492
提出建议	-10493
萨克斯坦	-10494
asure	-10495
▁Concern	-10496
▁warning	-10497
▁Occupied	-10498
▁starting	-10499
▁committees	-10500
▁xenophobia	-10501
▁preparations	-10502
▁Representatives	-10503
%)	-10504
TC	-10505
ls	-10506
偿还	-10507
其顿	-10508
开心	-10509
武力	-10510
在这个	-10511
的事项	-10512
该决议	-10513
para	-10514
ront	-10515
▁51.	-10516
采取一切	-10517
▁Dist	-10518
▁warm	-10519
▁通过议程	-10520
▁dedic	-10521
▁Tanzania	-10522
▁stations	-10523
olonization	-10524
▁completely	-10525
个别	-10526
主办	-10527
已在	-10528
才是	-10529
极其	-10530
气体	-10531
/12	-10532
制度的	-10533
接受的	-10534
的机构	-10535
一些国家	-10536
粮农组织	-10537
ITRAL	-10538
▁links	-10539
▁north	-10540
▁posed	-10541
▁showed	-10542
▁transf	-10543
▁diamond	-10544
▁outlined	-10545
▁substance	-10546
▁demobilization	-10547
加纳	-10548
学家	-10549
有罪	-10550
条的	-10551
牙买	-10552
雇主	-10553
bek	-10554
you	-10555
▁我只	-10556
以加强	-10557
内罗毕	-10558
要求的	-10559
问题是	-10560
▁Shit	-10561
▁code	-10562
提出的建议	-10563
▁fixed	-10564
▁funny	-10565
▁track	-10566
大会正式记录	-10567
▁Monday	-10568
ribunals	-10569
▁version	-10570
▁conclude	-10571
▁directed	-10572
▁2004-2005	-10573
▁incidents	-10574
或是	-10575
间接	-10576
第一个	-10577
▁Sch	-10578
▁Viet	-10579
提交的报告	-10580
Bissau	-10581
amaica	-10582
▁sides	-10583
裁军谈判会议	-10584
ourable	-10585
▁Change	-10586
▁fiscal	-10587
▁migrant	-10588
实现千年发展目标	-10589
▁computer	-10590
▁greatest	-10591
▁proceeds	-10592
▁functional	-10593
▁demonstrated	-10594
An	-10595
▁全	-10596
事业	-10597
你能	-10598
召集	-10599
和多	-10600
守则	-10601
签订	-10602
.26	-10603
不人道	-10604
公司的	-10605
原因是	-10606
发生在	-10607
成功地	-10608
牙买加	-10609
的暴力	-10610
mmun	-10611
State	-10612
▁Help	-10613
ruguay	-10614
▁facts	-10615
▁decades	-10616
▁covering	-10617
▁focusing	-10618
▁appreciate	-10619
▁processing	-10620
▁insufficient	-10621
一场	-10622
宝贵	-10623
辱人	-10624
边缘	-10625
首长	-10626
tal	-10627
▁不管	-10628
份报告	-10629
制定了	-10630
原则和	-10631
atar	-10632
▁FAO	-10633
最高法院	-10634
entle	-10635
▁Maced	-10636
▁Island	-10637
▁Michael	-10638
▁decides	-10639
▁repatri	-10640
▁welfare	-10641
▁managers	-10642
▁convinced	-10643
▁occupying	-10644
▁intervention	-10645
▁罗	-10646
报酬	-10647
昨天	-10648
有着	-10649
▁gr	-10650
的歧视	-10651
发展筹资	-10652
/2008	-10653
▁cool	-10654
▁grat	-10655
▁你为什么	-10656
委员会的建议	-10657
▁genuine	-10658
▁Slovenia	-10659
▁acquisition	-10660
,”	-10661
RA	-10662
Sh	-10663
周年	-10664
总数	-10665
认定	-10666
che	-10667
▁IS	-10668
▁任何	-10669
▁天啊	-10670
不得不	-10671
殖民化	-10672
程序的	-10673
作出贡献	-10674
ivate	-10675
▁Salv	-10676
人权高专办	-10677
工作人员的	-10678
/2006/	-10679
▁Sales	-10680
▁League	-10681
▁consum	-10682
▁passed	-10683
▁weapon	-10684
▁Torture	-10685
▁anticip	-10686
▁usually	-10687
▁selected	-10688
▁somebody	-10689
安全理事会主席的信	-10690
▁Activities	-10691
▁前	-10692
三分	-10693
优势	-10694
功能	-10695
去年	-10696
后者	-10697
地带	-10698
愿望	-10699
法定	-10700
而在	-10701
.17	-10702
一方面	-10703
的决议	-10704
▁你觉得	-10705
向联合国	-10706
▁1980	-10707
妇女和儿童	-10708
▁Field	-10709
▁music	-10710
▁param	-10711
entions	-10712
▁middle	-10713
▁Senegal	-10714
▁Through	-10715
▁vehicles	-10716
▁注	-10717
.19	-10718
INF	-10719
que	-10720
ugg	-10721
经济和	-10722
real	-10723
▁Bye	-10724
▁Pat	-10725
▁我们会	-10726
▁我们在	-10727
提供关于	-10728
▁tack	-10729
▁green	-10730
▁cities	-10731
▁opened	-10732
▁Process	-10733
▁feeling	-10734
▁pending	-10735
▁adopting	-10736
▁Welcoming	-10737
▁Strengthen	-10738
▁questionna	-10739
▁represents	-10740
▁advancement	-10741
▁Professional	-10742
公报	-10743
安置	-10744
席位	-10745
把你	-10746
生产和	-10747
申诉人	-10748
的参与	-10749
的条款	-10750
arag	-10751
ench	-10752
mail	-10753
▁我已经	-10754
积极参与	-10755
许多国家	-10756
riers	-10757
▁wors	-10758
▁consc	-10759
▁London	-10760
消除对妇女一切形式歧视公约	-10761
rd	-10762
一国	-10763
依靠	-10764
停火	-10765
去哪	-10766
同等	-10767
国和	-10768
机场	-10769
遣返	-10770
麦隆	-10771
▁Ba	-10772
▁第四	-10773
日关于	-10774
项目标	-10775
马其顿	-10776
玻利维亚	-10777
▁bitch	-10778
▁我国代表团	-10779
外国直接投资	-10780
▁Muslim	-10781
难民专员办事处	-10782
▁Peoples	-10783
▁Tunisia	-10784
▁borders	-10785
▁equival	-10786
▁quickly	-10787
▁trained	-10788
▁Informal	-10789
▁creditors	-10790
公路	-10791
分散	-10792
帮你	-10793
指数	-10794
的核心	-10795
1967	-10796
▁Mig	-10797
▁Pun	-10798
农村地区	-10799
arial	-10800
dered	-10801
▁Keep	-10802
▁nearly	-10803
▁Society	-10804
▁Southern	-10805
▁combined	-10806
▁residence	-10807
▁complainant	-10808
▁empowerment	-10809
▁publications	-10810
(2	-10811
Or	-10812
使者	-10813
我很	-10814
把我	-10815
游戏	-10816
驻地	-10817
▁你們	-10818
喀麦隆	-10819
ithu	-10820
▁这不是	-10821
提交报告	-10822
rible	-10823
uster	-10824
经费的筹措	-10825
▁Armed	-10826
▁fraud	-10827
▁advocacy	-10828
▁location	-10829
▁aggression	-10830
▁complaints	-10831
会有	-10832
图书	-10833
弱势	-10834
病毒	-10835
糟糕	-10836
维尔	-10837
记者	-10838
首要	-10839
马尔	-10840
▁Um	-10841
性剥削	-10842
本公约	-10843
计算机	-10844
crib	-10845
▁50.	-10846
部队派遣	-10847
/1999	-10848
▁worse	-10849
▁remote	-10850
▁bearing	-10851
▁demands	-10852
▁Bulgaria	-10853
▁Observer	-10854
▁integral	-10855
▁Mauritius	-10856
▁Reaffirms	-10857
▁association	-10858
:《	-10859
CI	-10860
塔利	-10861
太太	-10862
怀孕	-10863
见第	-10864
150	-10865
▁那就	-10866
巴尼亚	-10867
程序和	-10868
▁cry	-10869
▁mix	-10870
将有助于	-10871
stein	-10872
▁House	-10873
▁spent	-10874
istries	-10875
▁careful	-10876
▁UNCITRAL	-10877
▁Statistics	-10878
▁constitutes	-10879
▁transferred	-10880
Re	-10881
▁求	-10882
区别	-10883
咖啡	-10884
已有	-10885
谋杀	-10886
陈述	-10887
.20	-10888
▁法律	-10889
的认识	-10890
的调查	-10891
ynam	-10892
和平利用	-10893
▁rose	-10894
▁soft	-10895
联刚特派团	-10896
iversary	-10897
▁comprom	-10898
▁replace	-10899
▁therein	-10900
▁indicates	-10901
▁mortality	-10902
▁Guidelines	-10903
▁demonstrate	-10904
▁哇	-10905
紧迫	-10906
lie	-10907
serv	-10908
urred	-10909
▁dark	-10910
发达国家的	-10911
和重返社会	-10912
iaison	-10913
▁admit	-10914
▁liter	-10915
isation	-10916
▁Before	-10917
▁Slovak	-10918
▁stable	-10919
▁customs	-10920
▁perhaps	-10921
▁reaching	-10922
▁Everything	-10923
▁prohibited	-10924
▁experienced	-10925
和有	-10926
行事	-10927
贝尔	-10928
.1/	-10929
的威胁	-10930
UNEP	-10931
▁Gen	-10932
▁Jam	-10933
▁Pet	-10934
▁WHO	-10935
being	-10936
scale	-10937
▁Arms	-10938
▁Shut	-10939
特设委员会	-10940
▁topics	-10941
▁Turkish	-10942
▁broader	-10943
▁succeed	-10944
including	-10945
▁repeated	-10946
▁complaint	-10947
fortunately	-10948
▁Agriculture	-10949
▁methodology	-10950
▁ministerial	-10951
上面	-10952
传染	-10953
发动	-10954
后面	-10955
消耗	-10956
特征	-10957
裁定	-10958
那是	-10959
都没	-10960
oor	-10961
▁7,	-10962
▁SA	-10963
和教育	-10964
face	-10965
▁54.	-10966
▁Ali	-10967
▁Sol	-10968
CEDAW	-10969
▁1996,	-10970
▁ended	-10971
▁closer	-10972
▁confirm	-10973
2006-2007	-10974
▁Cambodia	-10975
▁sections	-10976
▁Macedonia	-10977
▁Relations	-10978
▁impartial	-10979
▁intellectual	-10980
:1	-10981
oa	-10982
动力	-10983
多个	-10984
并与	-10985
继承	-10986
软件	-10987
逐渐	-10988
/24	-10989
cks	-10990
▁以及	-10991
最好的	-10992
造成了	-10993
emen	-10994
对联合国	-10995
中非共和国	-10996
筹备委员会	-10997
▁Heads	-10998
▁plant	-10999
▁Foundation	-11000
你想	-11001
终了	-11002
必要时	-11003
arms	-11004
▁Fas	-11005
▁1991	-11006
▁Cross	-11007
akhstan	-11008
espread	-11009
▁Person	-11010
ashington	-11011
▁Measures	-11012
▁Platform	-11013
▁sixtieth	-11014
▁chemicals	-11015
▁administering	-11016
81	-11017
▁·	-11018
▁六	-11019
一段	-11020
不管	-11021
时的	-11022
渠道	-11023
规章	-11024
让人	-11025
tes	-11026
▁中国	-11027
一部分	-11028
在所有	-11029
并通过	-11030
是不是	-11031
ourg	-11032
▁Tok	-11033
▁fit	-11034
禁止酷刑	-11035
annel	-11036
ongol	-11037
▁Case	-11038
▁CEDAW	-11039
▁camps	-11040
▁south	-11041
国际刑事法院	-11042
▁stupid	-11043
▁termin	-11044
visional	-11045
▁legally	-11046
▁prosecut	-11047
▁exclusive	-11048
▁explained	-11049
毒品和犯罪问题办事处	-11050
▁条	-11051
一人	-11052
两种	-11053
必需	-11054
正是	-11055
▁欧洲	-11056
▁确保	-11057
的相关	-11058
aves	-11059
▁47.	-11060
▁48.	-11061
▁Air	-11062
促进发展	-11063
▁City	-11064
问题国际法庭	-11065
grading	-11066
▁served	-11067
▁Finance	-11068
▁Hungary	-11069
▁condemn	-11070
▁Salvador	-11071
▁expresses	-11072
▁relatively	-11073
▁Nevertheless	-11074
▁Recommendation	-11075
",	-11076
.0	-11077
ME	-11078
不久	-11079
地下	-11080
宏观	-11081
家里	-11082
尔多	-11083
部的	-11084
闭嘴	-11085
/16	-11086
ago	-11087
▁伙计	-11088
在过去	-11089
.1),	-11090
▁800	-11091
▁Tog	-11092
财政资源	-11093
▁shut	-11094
▁国际社会	-11095
Americ	-11096
▁mandated	-11097
▁accession	-11098
▁arbitrary	-11099
▁ecosystem	-11100
▁performed	-11101
▁Transitional	-11102
72	-11103
He	-11104
kh	-11105
商务	-11106
婴儿	-11107
将为	-11108
必定	-11109
遣队	-11110
产生了	-11111
性暴力	-11112
的结论	-11113
▁与此同时	-11114
▁David	-11115
▁roles	-11116
rations	-11117
▁engine	-11118
▁Adviser	-11119
人权事务高级专员	-11120
▁released	-11121
▁distributed	-11122
▁vulnerability	-11123
以使	-11124
将来	-11125
消失	-11126
▁选举	-11127
书记官	-11128
萨尔瓦	-11129
违反了	-11130
▁hom	-11131
▁与会者	-11132
这种情况	-11133
进行合作	-11134
▁Inte	-11135
▁Nice	-11136
▁male	-11137
Habitat	-11138
▁accident	-11139
▁invasion	-11140
▁coherence	-11141
▁presidency	-11142
CH	-11143
SS	-11144
▁=	-11145
▁接	-11146
▁联	-11147
哈马	-11148
将由	-11149
捍卫	-11150
正当	-11151
移动	-11152
立陶	-11153
acc	-11154
bye	-11155
充分的	-11156
建设性	-11157
新加坡	-11158
的事实	-11159
立陶宛	-11160
haust	-11161
▁Team	-11162
▁autom	-11163
▁sixth	-11164
▁excell	-11165
▁Climate	-11166
▁claimed	-11167
▁equally	-11168
▁managed	-11169
▁seminars	-11170
▁impossible	-11171
▁widespread	-11172
94	-11173
。]	-11174
外空	-11175
成效	-11176
比率	-11177
见的	-11178
.11	-11179
els	-11180
▁确认	-11181
出席了	-11182
意思是	-11183
目标和	-11184
防止和	-11185
inet	-11186
▁Det	-11187
男女平等	-11188
▁pill	-11189
▁UNODC	-11190
▁disag	-11191
▁imper	-11192
世界人权宣言	-11193
▁Contents	-11194
▁powerful	-11195
▁understood	-11196
制作	-11197
广播	-11198
给他	-11199
质疑	-11200
阐述	-11201
/7/	-11202
中心的	-11203
基金的	-11204
标准和	-11205
段所述	-11206
该报告	-11207
▁Ill	-11208
国际贸易	-11209
我们认为	-11210
▁Doha	-11211
粮食计划署	-11212
▁celeb	-11213
关切地注意到	-11214
▁Indian	-11215
▁Prohib	-11216
emporary	-11217
▁explicit	-11218
▁innocent	-11219
▁requesting	-11220
▁anniversary	-11221
内斯	-11222
多哈	-11223
定了	-11224
我有	-11225
把他	-11226
翻译	-11227
转交	-11228
.2/	-11229
▁99	-11230
▁他还	-11231
▁你就	-11232
▁即使	-11233
协调和	-11234
塔利班	-11235
有力的	-11236
研究和	-11237
▁Wow	-11238
▁sun	-11239
有关决议	-11240
acity	-11241
▁Coll	-11242
▁Very	-11243
▁prop	-11244
区域和国际	-11245
/2004/	-11246
▁Deleg	-11247
▁Stock	-11248
▁dynam	-11249
▁wider	-11250
满意地注意到	-11251
ologies	-11252
taining	-11253
▁Science	-11254
▁invites	-11255
▁reaffirm	-11256
▁southern	-11257
▁staffing	-11258
▁Developed	-11259
▁undertaking	-11260
▁acknowledged	-11261
,(	-11262
▁當	-11263
份额	-11264
充足	-11265
准入	-11266
地域	-11267
外勤	-11268
是有	-11269
民兵	-11270
汇率	-11271
阐明	-11272
▁拜托	-11273
▁日本	-11274
实施的	-11275
urch	-11276
▁Bro	-11277
▁arm	-11278
公开会议	-11279
water	-11280
▁fish	-11281
idding	-11282
▁(2001	-11283
▁Pract	-11284
不扩散核武器	-11285
usiness	-11286
▁dinner	-11287
▁appears	-11288
▁budgets	-11289
▁arrested	-11290
▁straight	-11291
▁continent	-11292
▁disability	-11293
▁extradition	-11294
一词	-11295
动员	-11296
将对	-11297
真实	-11298
缺少	-11299
ami	-11300
▁ow	-11301
▁我来	-11302
出现了	-11303
尼加拉	-11304
每一个	-11305
独立的	-11306
的发言	-11307
的最后	-11308
能够在	-11309
▁14,	-11310
▁MIN	-11311
▁mad	-11312
咨询机构	-11313
志愿人员	-11314
antic	-11315
▁Sign	-11316
在国家一级	-11317
安理会成员	-11318
▁Lithu	-11319
▁block	-11320
▁talks	-11321
▁zones	-11322
▁choose	-11323
▁orders	-11324
missions	-11325
▁Armenia	-11326
▁Uruguay	-11327
▁charged	-11328
▁Planning	-11329
▁Violence	-11330
▁fisheries	-11331
▁structural	-11332
▁Provisional	-11333
▁investigate	-11334
为期	-11335
了他	-11336
位于	-11337
促成	-11338
比如	-11339
物的	-11340
西方	-11341
走吧	-11342
还应	-11343
900	-11344
iel	-11345
ocs	-11346
▁在同	-11347
▁是我	-11348
工作者	-11349
目标的	-11350
lder	-11351
▁UNR	-11352
▁我需要	-11353
公共部门	-11354
委员会第	-11355
尼加拉瓜	-11356
民主主义	-11357
萨尔瓦多	-11358
▁lies	-11359
▁remo	-11360
该决议草案	-11361
▁Watch	-11362
▁moved	-11363
▁signs	-11364
ictions	-11365
▁Really	-11366
▁defend	-11367
▁impris	-11368
▁incent	-11369
izations	-11370
ocational	-11371
▁Conventions	-11372
▁associations	-11373
▁imprisonment	-11374
OT	-11375
rs	-11376
吉尔	-11377
某个	-11378
汽车	-11379
罗姆	-11380
革命	-11381
香港	-11382
▁ID	-11383
▁随着	-11384
重要性	-11385
hips	-11386
oked	-11387
▁Ber	-11388
▁nar	-11389
保健服务	-11390
审议大会	-11391
少数民族	-11392
bound	-11393
▁double	-11394
▁foster	-11395
▁summit	-11396
utrition	-11397
▁constant	-11398
▁Expresses	-11399
▁recognizing	-11400
▁presidential	-11401
乌兹	-11402
余额	-11403
很少	-11404
时刻	-11405
档案	-11406
没收	-11407
疑问	-11408
(1)	-11409
CRC	-11410
▁Ha	-11411
就必须	-11412
的危险	-11413
预算外	-11414
acro	-11415
独立专家	-11416
▁elig	-11417
▁vide	-11418
Govern	-11419
▁white	-11420
contrib	-11421
▁mental	-11422
▁program	-11423
▁commence	-11424
▁adjustment	-11425
▁programming	-11426
no	-11427
▁两	-11428
▁做	-11429
民事	-11430
這個	-11431
量的	-11432
ias	-11433
▁9,	-11434
为实现	-11435
乌兹别	-11436
第二个	-11437
管理的	-11438
▁Ray	-11439
▁Rev	-11440
▁就这样	-11441
表示欢迎	-11442
anges	-11443
pping	-11444
▁Time	-11445
▁deem	-11446
▁page	-11447
增进和保护	-11448
▁1999.	-11449
▁Should	-11450
▁debtor	-11451
▁deeply	-11452
▁capable	-11453
▁periods	-11454
▁biennial	-11455
▁premises	-11456
▁campaigns	-11457
▁ourselves	-11458
ić	-11459
多次	-11460
总值	-11461
招募	-11462
法索	-11463
的有	-11464
融合	-11465
警官	-11466
這樣	-11467
和人权	-11468
因为它	-11469
活动和	-11470
第一章	-11471
需要在	-11472
/40/	-11473
ille	-11474
▁加拿大	-11475
世界贸易	-11476
号决议所设	-11477
▁(212)	-11478
▁forums	-11479
▁Against	-11480
President	-11481
▁rational	-11482
给安全理事会主席的信	-11483
▁Employment	-11484
▁Kazakhstan	-11485
▁representing	-11486
▁interventions	-11487
代价	-11488
伦敦	-11489
升级	-11490
可怕	-11491
地的	-11492
帮忙	-11493
现已	-11494
瓦尔	-11495
onn	-11496
▁包括	-11497
审查了	-11498
的实施	-11499
的需求	-11500
该项目	-11501
都必须	-11502
kina	-11503
side	-11504
▁Gab	-11505
▁uns	-11506
届会议上	-11507
自治领土	-11508
贩运人口	-11509
▁Roma	-11510
depend	-11511
▁(2004	-11512
▁Domin	-11513
ription	-11514
▁Arabic	-11515
▁Cameroon	-11516
▁assisted	-11517
▁selection	-11518
▁fulfilment	-11519
中间	-11520
从未	-11521
可是	-11522
德班	-11523
忘记	-11524
所做	-11525
日子	-11526
独特	-11527
uds	-11528
得不到	-11529
alle	-11530
roud	-11531
▁700	-11532
▁bag	-11533
▁你不能	-11534
作为一个	-11535
提交一份	-11536
缔约国在	-11537
iform	-11538
▁laid	-11539
进一步加强	-11540
terday	-11541
urable	-11542
▁MONUC	-11543
朝鲜民主主义	-11544
给秘书长的信	-11545
ilation	-11546
▁Regist	-11547
▁behavi	-11548
▁Jamaica	-11549
▁carrier	-11550
▁happens	-11551
▁schedule	-11552
▁generation	-11553
朝鲜民主主义人民共和国	-11554
行政和预算问题咨询委员会	-11555
▁Consideration	-11556
▁Recommendations	-11557
作业	-11558
你好	-11559
别的	-11560
因為	-11561
够了	-11562
得出	-11563
支援	-11564
消极	-11565
疟疾	-11566
/26	-11567
的人们	-11568
的请求	-11569
ieth	-11570
▁Wed	-11571
刑事法庭	-11572
必要措施	-11573
ander	-11574
▁allev	-11575
▁tenth	-11576
不限成员名额	-11577
▁federal	-11578
▁village	-11579
▁Auditors	-11580
▁Protocols	-11581
▁considerations	-11582
GC	-11583
住在	-11584
入学	-11585
学术	-11586
意外	-11587
拉脱	-11588
此外	-11589
空中	-11590
.25	-11591
▁(“	-11592
他們的	-11593
根据其	-11594
的案件	-11595
签署了	-11596
sper	-11597
▁49.	-11598
协调一致	-11599
所需经费	-11600
进展情况	-11601
附属机构	-11602
cking	-11603
▁damn	-11604
▁我们希望	-11605
协调委员会	-11606
▁bench	-11607
▁remov	-11608
▁儿童基金会	-11609
▁satisf	-11610
公民权利和政治	-11611
▁entrust	-11612
▁greatly	-11613
▁2008-2009	-11614
▁belonging	-11615
▁memorandum	-11616
91	-11617
丰富	-11618
净额	-11619
十二	-11620
失望	-11621
家属	-11622
封锁	-11623
森堡	-11624
海上	-11625
种植	-11626
移交	-11627
纪律	-11628
那种	-11629
ECD	-11630
▁难道	-11631
不容忍	-11632
和工作	-11633
审查和	-11634
的使用	-11635
相信我	-11636
ript	-11637
▁Ice	-11638
▁Luc	-11639
举行会议	-11640
南南合作	-11641
拉脱维亚	-11642
生态系统	-11643
▁Faso	-11644
▁rock	-11645
▁Pursu	-11646
提供技术援助	-11647
▁equity	-11648
▁punish	-11649
▁surely	-11650
▁Advance	-11651
▁hearing	-11652
▁creditor	-11653
▁opposition	-11654
▁utilization	-11655
hr	-11656
和他	-11657
圆桌	-11658
客观	-11659
摧毁	-11660
比额	-11661
距离	-11662
▁IP	-11663
也可以	-11664
是一项	-11665
的人民	-11666
赞比亚	-11667
进程的	-11668
iban	-11669
▁Make	-11670
▁earn	-11671
方面的作用	-11672
▁catch	-11673
▁shipp	-11674
▁Instit	-11675
▁wealth	-11676
mmunition	-11677
▁Organized	-11678
▁Reduction	-11679
▁explanation	-11680
uj	-11681
囚犯	-11682
现场	-11683
研所	-11684
都能	-11685
▁CC	-11686
与国际	-11687
人居署	-11688
其他人	-11689
的实际	-11690
▁VII	-11691
▁pen	-11692
▁unf	-11693
adies	-11694
▁Least	-11695
▁Forest	-11696
▁counsel	-11697
▁deployed	-11698
▁convening	-11699
▁transfers	-11700
▁伊	-11701
不行	-11702
力和	-11703
区分	-11704
多久	-11705
尽早	-11706
现状	-11707
用品	-11708
申明	-11709
留在	-11710
种种	-11711
能否	-11712
警方	-11713
▁主要	-11714
▁准备	-11715
▁应当	-11716
图书馆	-11717
岁以下	-11718
报告和	-11719
有能力	-11720
的政府	-11721
rick	-11722
udes	-11723
▁Sah	-11724
▁cas	-11725
及太平洋	-11726
开发银行	-11727
belie	-11728
▁Fire	-11729
▁beat	-11730
▁seeks	-11731
▁spend	-11732
▁truly	-11733
angible	-11734
embourg	-11735
▁hunger	-11736
▁parent	-11737
▁receip	-11738
▁refers	-11739
▁street	-11740
▁appeals	-11741
▁possess	-11742
▁tourism	-11743
▁Equality	-11744
▁consolidation	-11745
Sp	-11746
UT	-11747
了你	-11748
事故	-11749
华盛	-11750
并就	-11751
来到	-11752
禁运	-11753
过度	-11754
/5/	-11755
▁除非	-11756
个员额	-11757
区域的	-11758
卢森堡	-11759
和法律	-11760
被拘留	-11761
▁52.	-11762
主席先生	-11763
▁tend	-11764
uesday	-11765
sharing	-11766
▁volume	-11767
▁Decision	-11768
▁requiring	-11769
▁degradation	-11770
▁manufacture	-11771
bo	-11772
你说	-11773
倡导	-11774
分歧	-11775
小学	-11776
废除	-11777
节目	-11778
草稿	-11779
都要	-11780
usp	-11781
▁Ac	-11782
▁还是	-11783
关于在	-11784
华盛顿	-11785
并强调	-11786
的培训	-11787
▁Imm	-11788
▁tel	-11789
eenth	-11790
itage	-11791
▁贸发会议	-11792
伊斯兰会议	-11793
▁finds	-11794
▁prove	-11795
▁votes	-11796
马其顿共和国	-11797
alition	-11798
▁breach	-11799
▁offers	-11800
▁scared	-11801
xembourg	-11802
▁Bolivia	-11803
▁prejudice	-11804
▁inadequate	-11805
7)	-11806
AB	-11807
▁深	-11808
农民	-11809
否认	-11810
告知	-11811
左右	-11812
布鲁	-11813
月的	-11814
物体	-11815
说法	-11816
为执行	-11817
在这些	-11818
otyp	-11819
▁Abd	-11820
▁ICC	-11821
▁实际上	-11822
指导方针	-11823
辱人格的	-11824
▁hair	-11825
至关重要的	-11826
▁Could	-11827
▁brain	-11828
▁guard	-11829
▁Durban	-11830
▁School	-11831
▁visited	-11832
▁disposal	-11833
▁occasion	-11834
▁sensitive	-11835
▁phenomenon	-11836
▁Settlements	-11837
FP	-11838
▁/	-11839
东部	-11840
之处	-11841
会谈	-11842
定为	-11843
探索	-11844
施加	-11845
测试	-11846
预警	-11847
▁至于	-11848
其工作	-11849
外国人	-11850
开展了	-11851
是我的	-11852
登记册	-11853
1989	-11854
Self	-11855
amas	-11856
osen	-11857
▁57.	-11858
区域组织	-11859
条款草案	-11860
,2000	-11861
elled	-11862
▁55/2	-11863
▁brid	-11864
▁lady	-11865
▁beings	-11866
▁detain	-11867
▁flight	-11868
▁putting	-11869
▁Pursuant	-11870
▁rejected	-11871
▁conducting	-11872
▁successfully	-11873
▁transnational	-11874
▁accomplishments	-11875
ki	-11876
▁附	-11877
政权	-11878
斯科	-11879
纠正	-11880
见了	-11881
不结盟	-11882
和程序	-11883
条和第	-11884
条约的	-11885
责任的	-11886
▁(3)	-11887
▁53.	-11888
▁rid	-11889
▁伊拉克	-11890
oting	-11891
之间的合作	-11892
▁Water	-11893
▁salary	-11894
内部监督事务厅	-11895
specific	-11896
▁channel	-11897
▁allowing	-11898
▁movements	-11899
▁Transnational	-11900
▁叫	-11901
储备	-11902
和中	-11903
填补	-11904
小心	-11905
米尼	-11906
老龄	-11907
▁全球	-11908
和使用	-11909
的人员	-11910
▁Jim	-11911
▁lif	-11912
常驻代表	-11913
ively	-11914
▁gold	-11915
哈萨克斯坦	-11916
有关的问题	-11917
(1999)	-11918
called	-11919
▁begun	-11920
▁hazard	-11921
▁larger	-11922
▁suffer	-11923
▁update	-11924
▁quarter	-11925
▁signing	-11926
▁restruct	-11927
▁exception	-11928
▁determining	-11929
Proliferation	-11930
(《	-11931
uz	-11932
▁更	-11933
冰岛	-11934
教学	-11935
爱沙	-11936
用以	-11937
阿布	-11938
rog	-11939
▁Av	-11940
▁可能	-11941
▁这次	-11942
批准了	-11943
更多地	-11944
特遣队	-11945
美国的	-11946
董事会	-11947
非洲的	-11948
ores	-11949
▁GEF	-11950
▁tri	-11951
补救办法	-11952
该委员会	-11953
annes	-11954
grams	-11955
umber	-11956
▁Educ	-11957
▁sets	-11958
所有会员国	-11959
非自治领土	-11960
lining	-11961
▁fault	-11962
▁labor	-11963
▁wound	-11964
umbered	-11965
▁handle	-11966
▁unders	-11967
American	-11968
▁Tuesday	-11969
▁treated	-11970
▁incident	-11971
▁multiple	-11972
▁organize	-11973
▁properly	-11974
▁Operation	-11975
▁enterprise	-11976
▁原	-11977
万人	-11978
休息	-11979
会晤	-11980
和可	-11981
差别	-11982
快乐	-11983
意图	-11984
披露	-11985
文职	-11986
普及	-11987
本来	-11988
概述	-11989
终于	-11990
评注	-11991
领袖	-11992
ENT	-11993
exp	-11994
▁ON	-11995
举办了	-11996
很重要	-11997
文件的	-11998
法行为	-11999
的地区	-12000
reto	-12001
well	-12002
▁dup	-12003
▁hol	-12004
充分执行	-12005
提供服务	-12006
爱沙尼亚	-12007
着重指出	-12008
,2005	-12009
enger	-12010
ength	-12011
▁emer	-12012
▁stim	-12013
亚洲及太平洋	-12014
▁crises	-12015
2004-2005	-12016
Governing	-12017
▁conventional	-12018
▁反	-12019
仍有	-12020
公认	-12021
参照	-12022
崇拜	-12023
强化	-12024
快点	-12025
摆脱	-12026
比赛	-12027
贝宁	-12028
负债	-12029
进度	-12030
首席	-12031
▁我看	-12032
继续在	-12033
重大的	-12034
1980	-12035
uven	-12036
▁hey	-12037
号决议和	-12038
秘书长的	-12039
after	-12040
▁drew	-12041
▁gaps	-12042
encing	-12043
▁Among	-12044
乌兹别克斯坦	-12045
▁Within	-12046
rigendum	-12047
▁exhaust	-12048
▁Lithuania	-12049
▁necessity	-12050
▁tolerance	-12051
▁conservation	-12052
▁带	-12053
月至	-12054
这场	-12055
饥饿	-12056
▁无论	-12057
引起的	-12058
的各个	-12059
这方面	-12060
ibid	-12061
▁我是说	-12062
提请注意	-12063
,2001	-12064
aired	-12065
▁Mess	-12066
▁conj	-12067
所作的努力	-12068
advant	-12069
aragua	-12070
iented	-12071
▁moral	-12072
▁users	-12073
▁Establ	-12074
▁assume	-12075
▁speaker	-12076
▁variety	-12077
▁platform	-12078
▁teachers	-12079
▁integrate	-12080
▁Washington	-12081
,1	-12082
SO	-12083
▁法	-12084
之内	-12085
基纳	-12086
水和	-12087
经社	-12088
讨厌	-12089
跨界	-12090
错了	-12091
▁其实	-12092
几个月	-12093
和行政	-12094
品编号	-12095
迄今为止	-12096
inery	-12097
nesday	-12098
▁About	-12099
▁proof	-12100
ocation	-12101
▁ending	-12102
▁Interim	-12103
▁Taliban	-12104
▁deposit	-12105
▁objects	-12106
▁seventh	-12107
▁stresses	-12108
▁satellite	-12109
▁transportation	-12110
VI	-12111
弃权	-12112
想到	-12113
敌对	-12114
经合	-12115
跟踪	-12116
怎么了	-12117
的公约	-12118
良好的	-12119
近年来	-12120
▁Hon	-12121
▁在这一	-12122
难民事务	-12123
▁fill	-12124
以法语发言	-12125
▁Thurs	-12126
▁UNOPS	-12127
▁Latvia	-12128
▁admiss	-12129
▁guided	-12130
▁recall	-12131
olutions	-12132
▁prosper	-12133
▁composed	-12134
laundering	-12135
▁composition	-12136
discrimination	-12137
76	-12138
EE	-12139
人为	-12140
拿马	-12141
查阅	-12142
消灭	-12143
签字	-12144
领取	-12145
aur	-12146
▁Uz	-12147
▁可是	-12148
▁在第	-12149
具体的	-12150
内斯堡	-12151
并加强	-12152
的最佳	-12153
2015	-12154
kers	-12155
▁55.	-12156
▁大会第	-12157
国家元首	-12158
感到关切	-12159
的一般性	-12160
space	-12161
这种情况下	-12162
问题工作组	-12163
▁Peter	-12164
▁denied	-12165
▁forgot	-12166
▁liquid	-12167
▁Defence	-12168
▁indirect	-12169
▁reliable	-12170
▁Wednesday	-12171
▁Assessment	-12172
▁interaction	-12173
8(	-12174
其对	-12175
前景	-12176
庆祝	-12177
拯救	-12178
描述	-12179
此项	-12180
注册	-12181
理想	-12182
色情	-12183
转变	-12184
▁一切	-12185
在我们	-12186
的利益	-12187
老年人	-12188
▁lib	-12189
▁ves	-12190
▁我喜欢	-12191
基纳法索	-12192
iques	-12193
▁Bill	-12194
▁card	-12195
▁huge	-12196
▁thor	-12197
rating	-12198
▁Qatar	-12199
▁occas	-12200
▁proud	-12201
▁seized	-12202
秘书长特别代表	-12203
ductions	-12204
▁journal	-12205
▁drinking	-12206
▁financed	-12207
▁pollution	-12208
▁historical	-12209
▁flexibility	-12210
一套	-12211
一家	-12212
互相	-12213
回返	-12214
国外	-12215
并应	-12216
耳他	-12217
被迫	-12218
▁好吗	-12219
▁目录	-12220
一定要	-12221
的计划	-12222
结束后	-12223
见附件	-12224
该组织	-12225
▁Nat	-12226
▁Yet	-12227
▁sad	-12228
ented	-12229
▁2015	-12230
▁fool	-12231
▁unto	-12232
约翰内斯堡	-12233
inated	-12234
▁Based	-12235
▁UNRWA	-12236
▁enemy	-12237
entials	-12238
▁illust	-12239
▁seeing	-12240
▁Poverty	-12241
▁becomes	-12242
▁explore	-12243
▁outputs	-12244
▁precise	-12245
▁reading	-12246
▁customary	-12247
▁adequately	-12248
▁responding	-12249
不妨	-12250
其实	-12251
削弱	-12252
我去	-12253
方便	-12254
早期	-12255
时限	-12256
知的	-12257
蒙古	-12258
过的	-12259
陷入	-12260
COM	-12261
▁63	-12262
▁孩子	-12263
同样的	-12264
权证书	-12265
确定了	-12266
权力机构	-12267
▁Four	-12268
▁Penal	-12269
▁apart	-12270
辱人格的待遇	-12271
▁contra	-12272
▁format	-12273
▁gentle	-12274
▁marked	-12275
udgetary	-12276
▁violent	-12277
annesburg	-12278
▁promoted	-12279
▁stronger	-12280
▁formulated	-12281
▁arrangement	-12282
▁prohibition	-12283
不安	-12284
你有	-12285
充满	-12286
刑罚	-12287
因特	-12288
处置	-12289
操作	-12290
放射	-12291
沿海	-12292
邮件	-12293
-16	-12294
.14	-12295
aka	-12296
ils	-12297
和文化	-12298
在一个	-12299
增加到	-12300
alys	-12301
osis	-12302
▁ESC	-12303
▁GDP	-12304
常规武器	-12305
提供有关	-12306
essor	-12307
quiry	-12308
▁evol	-12309
不人道或有	-12310
elling	-12311
▁Organ	-12312
▁Rober	-12313
▁piece	-12314
一般事务人员	-12315
▁Monter	-12316
▁produc	-12317
▁Luxembourg	-12318
▁Advancement	-12319
▁declarations	-12320
处的	-12321
好好	-12322
恐惧	-12323
温室	-12324
西岸	-12325
IGH	-12326
▁8,	-12327
人口的	-12328
的军事	-12329
背景下	-12330
贸易和	-12331
这么做	-12332
FCCC	-12333
▁Rad	-12334
和平协定	-12335
rates	-12336
▁Book	-12337
▁feet	-12338
▁star	-12339
▁cance	-12340
▁allows	-12341
▁anyway	-12342
▁curric	-12343
▁formed	-12344
▁Burkina	-12345
effective	-12346
▁Similarly	-12347
▁commodity	-12348
▁disadvant	-12349
▁intensify	-12350
▁reiterates	-12351
BE	-12352
▁干	-12353
冷静	-12354
学会	-12355
循环	-12356
排斥	-12357
绩效	-12358
骚扰	-12359
MIS	-12360
▁不能	-12361
▁它还	-12362
对这一	-12363
比额表	-12364
的个人	-12365
蒙特雷	-12366
行为者	-12367
igor	-12368
orne	-12369
▁box	-12370
▁fat	-12371
▁告诉我	-12372
和平解决	-12373
anged	-12374
ceans	-12375
▁这是一个	-12376
首脑会议的	-12377
itative	-12378
▁desire	-12379
▁applies	-12380
不扩散核武器条约	-12381
2008-2009	-12382
itiveness	-12383
▁employed	-12384
▁violated	-12385
▁Monterrey	-12386
▁Transport	-12387
▁equivalent	-12388
告訴	-12389
国王	-12390
大地	-12391
已被	-12392
常会	-12393
有机	-12394
海事	-12395
▁阿尔	-12396
出现的	-12397
工作中	-12398
文化和	-12399
该公约	-12400
▁pra	-12401
取得成功	-12402
行政首长	-12403
itely	-12404
▁Holy	-12405
▁Stay	-12406
▁glad	-12407
▁prin	-12408
esides	-12409
▁lists	-12410
▁grants	-12411
▁lawyer	-12412
▁Iceland	-12413
▁rapidly	-12414
▁barriers	-12415
打击跨国有组织犯罪	-12416
▁execution	-12417
▁judgement	-12418
▁reaffirms	-12419
▁acceptable	-12420
▁Trafficking	-12421
LE	-12422
保安	-12423
加斯	-12424
将使	-12425
我能	-12426
照料	-12427
脱离	-12428
雇佣	-12429
些什么	-12430
的概念	-12431
积极的	-12432
abwe	-12433
▁Wal	-12434
问题世界	-12435
ifies	-12436
radic	-12437
出售品编号	-12438
atible	-12439
▁Uzbek	-12440
▁honey	-12441
▁throw	-12442
科索沃特派团	-12443
imbabwe	-12444
▁gather	-12445
▁stages	-12446
▁Thursday	-12447
▁thorough	-12448
▁emphasize	-12449
contributing	-12450
▁questionnaire	-12451
ez	-12452
和各	-12453
屠杀	-12454
纳米	-12455
120	-12456
roc	-12457
▁不行	-12458
PRST	-12459
▁Ram	-12460
任何其他	-12461
减贫战略	-12462
国际会议	-12463
研究报告	-12464
统计数据	-12465
▁coff	-12466
▁gain	-12467
income	-12468
▁Malta	-12469
▁Reiter	-12470
▁weight	-12471
▁renewed	-12472
常驻联合国代表团	-12473
▁undermin	-12474
▁operative	-12475
DR	-12476
▁坐	-12477
不良	-12478
周围	-12479
/40	-12480
▁0.	-12481
巴布韦	-12482
的立法	-12483
的第三	-12484
anks	-12485
oods	-12486
▁120	-12487
▁wed	-12488
咨询服务	-12489
津巴布韦	-12490
社会保障	-12491
被占领土	-12492
othes	-12493
wards	-12494
▁UNMIK	-12495
▁fresh	-12496
▁Series	-12497
▁thereon	-12498
▁balanced	-12499
▁northern	-12500
▁happening	-12501
毒品和犯罪问题办公室	-12502
▁Investment	-12503
▁Independent	-12504
!"	-12505
不太	-12506
关联	-12507
再生	-12508
基督	-12509
富有	-12510
并使	-12511
def	-12512
▁Im	-12513
在全球	-12514
强制性	-12515
总干事	-12516
▁MDG	-12517
uries	-12518
▁burn	-12519
▁calm	-12520
▁tele	-12521
开展的活动	-12522
政府间组织	-12523
部队派遣国	-12524
repren	-12525
ography	-12526
▁Resource	-12527
▁apparent	-12528
▁resolved	-12529
▁struggle	-12530
▁经济及社会理事会	-12531
▁exclusion	-12532
▁protocols	-12533
▁Statements	-12534
▁households	-12535
▁possession	-12536
▁Procurement	-12537
▁Environmental	-12538
IF	-12539
▁́	-12540
刺激	-12541
合适	-12542
咱们	-12543
撤销	-12544
杀人	-12545
毫不	-12546
物资	-12547
特使	-12548
▁Id	-12549
的時候	-12550
的风险	-12551
55/2	-12552
EPAD	-12553
dden	-12554
▁194	-12555
▁56.	-12556
▁特别是	-12557
自愿捐款	-12558
inent	-12559
共和国总统	-12560
委员会建议	-12561
联合共和国	-12562
lihood	-12563
▁Appro	-12564
▁Emerg	-12565
▁Former	-12566
▁Mother	-12567
▁workpl	-12568
▁thereof	-12569
▁detained	-12570
▁pregnant	-12571
▁2002-2003	-12572
▁Treatment	-12573
▁pertaining	-12574
▁negotiation	-12575
][	-12576
▁救	-12577
同事	-12578
咨商	-12579
认捐	-12580
与和平	-12581
互联网	-12582
侧重于	-12583
分配给	-12584
卡塔尔	-12585
带来了	-12586
很大的	-12587
所载的	-12588
是我们	-12589
水资源	-12590
没有人	-12591
这一切	-12592
ommy	-12593
▁Kar	-12594
可持续性	-12595
工作地点	-12596
▁adol	-12597
▁file	-12598
uthors	-12599
▁Franc	-12600
▁George	-12601
▁Zambia	-12602
▁length	-12603
▁verbal	-12604
levision	-12605
regional	-12606
▁custody	-12607
▁Monteneg	-12608
▁behaviour	-12609
▁reviewing	-12610
rabudgetary	-12611
▁Integrated	-12612
▁accessible	-12613
▁generations	-12614
▁repatriation	-12615
即便	-12616
旅费	-12617
无辜	-12618
活着	-12619
获悉	-12620
▁明天	-12621
你可以	-12622
找到了	-12623
的严重	-12624
的现象	-12625
相当于	-12626
计划和	-12627
▁fru	-12628
杀伤人员	-12629
越来越多	-12630
▁pray	-12631
(2000)	-12632
▁ocean	-12633
▁reply	-12634
▁sudden	-12635
▁Prevent	-12636
▁Without	-12637
▁operate	-12638
▁uniform	-12639
▁Zimbabwe	-12640
坦桑尼亚联合共和国	-12641
▁emphasizes	-12642
▁Educational	-12643
▁interesting	-12644
▁Organizations	-12645
DS	-12646
不多	-12647
为荷	-12648
人或	-12649
假设	-12650
就在	-12651
未成	-12652
港口	-12653
的可	-12654
的吗	-12655
ión	-12656
uct	-12657
▁Lo	-12658
价值观	-12659
和中国	-12660
或处罚	-12661
明确的	-12662
组成的	-12663
aker	-12664
▁Jew	-12665
▁Les	-12666
土著民族	-12667
宏观经济	-12668
非法贸易	-12669
▁Mali	-12670
缔约方大会	-12671
reotyp	-12672
杀伤人员地雷	-12673
▁Mongol	-12674
▁attain	-12675
▁commend	-12676
▁Procedure	-12677
▁Statement	-12678
▁department	-12679
▁incorporate	-12680
▁corresponding	-12681
▁liberalization	-12682
你就	-12683
保罗	-12684
尽力	-12685
成了	-12686
持有	-12687
ios	-12688
▁Us	-12689
▁过来	-12690
因特网	-12691
国内法	-12692
我们对	-12693
援助团	-12694
的性质	-12695
保护平民	-12696
加沙地带	-12697
继续审议	-12698
行动纲要	-12699
表示关注	-12700
ammad	-12701
▁Call	-12702
大会第二十	-12703
▁Benin	-12704
▁Incre	-12705
▁agents	-12706
▁disabled	-12707
▁incurred	-12708
▁eradicate	-12709
▁controlled	-12710
▁psychological	-12711
格式	-12712
穷人	-12713
追踪	-12714
cut	-12715
ker	-12716
▁真是	-12717
和儿童	-12718
的预算	-12719
还需要	-12720
高兴地	-12721
▁arg	-12722
▁hal	-12723
▁我真的	-12724
▁等一下	-12725
近东救济	-12726
rance	-12727
▁cruel	-12728
▁loans	-12729
▁Panama	-12730
▁depends	-12731
▁pursued	-12732
▁regimes	-12733
2002-2003	-12734
▁Slovakia	-12735
▁linkages	-12736
▁maritime	-12737
▁Nicaragua	-12738
▁benchmark	-12739
▁Inspection	-12740
▁professionals	-12741
判处	-12742
将本	-12743
小的	-12744
局面	-12745
支柱	-12746
缺陷	-12747
聪明	-12748
不符合	-12749
所做的	-12750
时间表	-12751
美元的	-12752
rame	-12753
▁Ins	-12754
▁fif	-12755
itals	-12756
oured	-12757
▁Disc	-12758
▁kiss	-12759
的后续行动	-12760
▁2009.	-12761
▁Sixty	-12762
ommunic	-12763
▁headed	-12764
▁injury	-12765
▁currency	-12766
▁millions	-12767
▁tribunal	-12768
▁procedural	-12769
▁suggestions	-12770
▁Strengthening	-12771
习俗	-12772
会费	-12773
军火	-12774
序言	-12775
总结	-12776
爆发	-12777
至第	-12778
西洋	-12779
设置	-12780
配合	-12781
▁工作	-12782
以及与	-12783
和原则	-12784
基本上	-12785
机制的	-12786
重点是	-12787
reek	-12788
▁是不是	-12789
资料来源	-12790
进行审查	-12791
▁abol	-12792
▁capt	-12793
▁wage	-12794
委员会关于	-12795
ectors	-12796
ternoon	-12797
unteers	-12798
▁encoun	-12799
▁scheme	-12800
▁legitim	-12801
▁package	-12802
▁reinforce	-12803
▁respected	-12804
▁continuous	-12805
▁livelihood	-12806
▁accountable	-12807
▁conjunction	-12808
▁distinction	-12809
▁Communications	-12810
ye	-12811
▁乔	-12812
▁拉	-12813
▁沒	-12814
一半	-12815
优惠	-12816
增编	-12817
子的	-12818
我了	-12819
昨晚	-12820
欺诈	-12821
电信	-12822
细节	-12823
(2)	-12824
15/	-12825
TAR	-12826
can	-12827
投资者	-12828
路线图	-12829
这些人	-12830
html	-12831
mans	-12832
rich	-12833
▁Alex	-12834
▁epid	-12835
经济委员会	-12836
incial	-12837
irates	-12838
▁seats	-12839
▁小组委员会	-12840
货币基金组织	-12841
▁covers	-12842
▁relate	-12843
▁Stresses	-12844
▁Montenegro	-12845
▁vocational	-12846
▁competitive	-12847
也将	-12848
变革	-12849
思考	-12850
求你	-12851
的和	-12852
裁谈	-12853
观测	-12854
▁今晚	-12855
有责任	-12856
的手段	-12857
结束了	-12858
行动者	-12859
进程中	-12860
that	-12861
温室气体	-12862
ahiri	-12863
grade	-12864
orest	-12865
▁chief	-12866
▁title	-12867
Aligned	-12868
ectives	-12869
forcing	-12870
▁Atomic	-12871
近东救济工程处	-12872
▁electric	-12873
▁promised	-12874
▁allowance	-12875
▁qualified	-12876
iodiversity	-12877
▁neighbouring	-12878
▁Constitutional	-12879
Wh	-12880
伯利	-12881
列出	-12882
命运	-12883
奴隶	-12884
它是	-12885
恰当	-12886
扩展	-12887
援引	-12888
最多	-12889
缓解	-12890
行径	-12891
选民	-12892
间的	-12893
hol	-12894
▁$1	-12895
▁DC	-12896
完成了	-12897
小武器	-12898
百分比	-12899
的最新	-12900
mbol	-12901
ping	-12902
▁End	-12903
▁Hur	-12904
▁pan	-12905
▁因为我	-12906
可持续的	-12907
基于性别	-12908
种族灭绝	-12909
▁bond	-12910
▁feas	-12911
▁till	-12912
▁我们可以	-12913
联合国机构	-12914
losure	-12915
▁Impro	-12916
非政府组织和	-12917
▁deaths	-12918
▁retire	-12919
▁drawing	-12920
▁totally	-12921
▁certific	-12922
▁spending	-12923
▁assessing	-12924
▁ministries	-12925
()	-12926
▁于	-12927
▁爱	-12928
▁谨	-12929
▁	-12930
修建	-12931
入境	-12932
应以	-12933
日常	-12934
电脑	-12935
负面	-12936
运用	-12937
CMP	-12938
iam	-12939
▁上帝	-12940
说明了	-12941
▁Moz	-12942
妇发基金	-12943
怎么回事	-12944
overed	-12945
▁Twenty	-12946
▁exists	-12947
▁mostly	-12948
ographic	-12949
▁injured	-12950
▁propose	-12951
▁receipt	-12952
▁guaranteed	-12953
▁cooperative	-12954
TD	-12955
仔细	-12956
地面	-12957
开枪	-12958
振兴	-12959
how	-12960
iar	-12961
▁Ev	-12962
会期间	-12963
出来的	-12964
发表的	-12965
召开的	-12966
的唯一	-12967
▁60.	-12968
▁USD	-12969
各代表团	-12970
就业机会	-12971
指导原则	-12972
提供资料	-12973
日通过的	-12974
表示赞赏	-12975
迫切需要	-12976
orage	-12977
▁Damn	-12978
▁Mold	-12979
▁bott	-12980
人力资源管理	-12981
ahiriya	-12982
▁Object	-12983
▁viable	-12984
▁Estonia	-12985
▁Illicit	-12986
bursement	-12987
▁Election	-12988
▁announce	-12989
▁district	-12990
▁stereotyp	-12991
▁Jamahiriya	-12992
▁necessarily	-12993
LC	-12994
RE	-12995
US	-12996
ih	-12997
、1	-12998
列支	-12999
创建	-13000
小型	-13001
尝试	-13002
年为	-13003
托克	-13004
法和	-13005
记住	-13006
谈到	-13007
金额	-13008
▁Bh	-13009
▁um	-13010
▁所需	-13011
在纽约	-13012
尔多瓦	-13013
战略和	-13014
iled	-13015
uras	-13016
▁hor	-13017
任务规定	-13018
icted	-13019
▁Prev	-13020
▁1995,	-13021
▁Arbit	-13022
▁Think	-13023
▁divid	-13024
▁remove	-13025
▁massive	-13026
▁airspace	-13027
▁prospects	-13028
▁subjected	-13029
▁adjustments	-13030
▁arbitration	-13031
LA	-13032
会在	-13033
利尔	-13034
加紧	-13035
句话	-13036
定罪	-13037
应收	-13038
mas	-13039
▁65	-13040
▁75	-13041
▁以下	-13042
▁呼吁	-13043
以上的	-13044
失业率	-13045
巴拿马	-13046
建立的	-13047
排放量	-13048
第二章	-13049
结束时	-13050
自由化	-13051
gies	-13052
open	-13053
▁eye	-13054
▁不知道	-13055
▁我们也	-13056
人权情况	-13057
作出努力	-13058
所有这些	-13059
的报告中	-13060
black	-13061
stant	-13062
▁pool	-13063
▁unity	-13064
前南斯拉夫的	-13065
联合国出版物	-13066
▁Libyan	-13067
▁leader	-13068
伊斯兰会议组织	-13069
复员和重返社会	-13070
▁authors	-13071
▁thereto	-13072
▁excellent	-13073
▁instances	-13074
▁accordingly	-13075
▁constituted	-13076
▁Johannesburg	-13077
1:	-13078
].	-13079
▁對	-13080
借此	-13081
关税	-13082
双重	-13083
向你	-13084
固定	-13085
或不	-13086
机器	-13087
高于	-13088
bre	-13089
▁审议	-13090
减少了	-13091
发展权	-13092
日终了	-13093
难民营	-13094
oyal	-13095
业务活动	-13096
代理主席	-13097
以及关于	-13098
公约草案	-13099
包括通过	-13100
cause	-13101
▁Army	-13102
▁Mary	-13103
▁Sant	-13104
▁diss	-13105
▁Judge	-13106
▁Strip	-13107
▁lands	-13108
▁abroad	-13109
▁monthly	-13110
▁Migration	-13111
▁machinery	-13112
▁reiterate	-13113
▁responded	-13114
▁Documentation	-13115
78	-13116
一届	-13117
下述	-13118
内政	-13119
南方	-13120
惩治	-13121
承受	-13122
撤回	-13123
比克	-13124
民警	-13125
知情	-13126
究竟	-13127
要去	-13128
轨道	-13129
过分	-13130
酋长	-13131
vin	-13132
听取了	-13133
外交部	-13134
大幅度	-13135
已成为	-13136
年轻人	-13137
服务和	-13138
的数额	-13139
管理国	-13140
让他们	-13141
enny	-13142
▁Lim	-13143
▁你不是	-13144
▁我以为	-13145
发挥作用	-13146
,2004	-13147
▁aband	-13148
▁macro	-13149
▁newly	-13150
▁chosen	-13151
▁Captain	-13152
▁Country	-13153
▁anybody	-13154
▁partial	-13155
▁dependent	-13156
▁ammunition	-13157
▁先	-13158
▁奥	-13159
不罚	-13160
主的	-13161
养护	-13162
化碳	-13163
友好	-13164
善政	-13165
塔吉	-13166
士登	-13167
完美	-13168
既然	-13169
色的	-13170
领空	-13171
cer	-13172
oug	-13173
人权利	-13174
承运人	-13175
敦士登	-13176
获得的	-13177
▁$1,	-13178
▁Kim	-13179
▁Taj	-13180
▁wal	-13181
经济合作	-13182
(2008	-13183
ourse	-13184
▁Five	-13185
▁unac	-13186
谅解备忘录	-13187
FFFFFF	-13188
▁dance	-13189
▁monit	-13190
entieth	-13191
▁execut	-13192
▁stocks	-13193
cHFFFFFF	-13194
gregated	-13195
▁inhuman	-13196
▁liberty	-13197
▁surround	-13198
▁Consensus	-13199
▁commended	-13200
▁Legislative	-13201
▁instructions	-13202
▁competitiveness	-13203
OV	-13204
▁吉	-13205
、“	-13206
下放	-13207
主导	-13208
小孩	-13209
据称	-13210
气氛	-13211
老年	-13212
财富	-13213
See	-13214
dam	-13215
▁ma	-13216
▁方案	-13217
及其对	-13218
定居点	-13219
竞争力	-13220
etic	-13221
requ	-13222
培训方案	-13223
大会主席	-13224
我们可以	-13225
摩尔多瓦	-13226
维和行动	-13227
联合国和	-13228
▁adhe	-13229
▁root	-13230
之间的联系	-13231
列支敦士登	-13232
布基纳法索	-13233
itious	-13234
暴力侵害妇女	-13235
▁tables	-13236
▁trials	-13237
▁Appeals	-13238
▁arrived	-13239
▁farmers	-13240
▁Progress	-13241
▁Standing	-13242
▁coherent	-13243
▁contacts	-13244
▁gratitude	-13245
▁contingent	-13246
▁consultants	-13247
▁forthcoming	-13248
▁notification	-13249
▁discriminatory	-13250
东欧	-13251
东盟	-13252
为你	-13253
列为	-13254
和性	-13255
太阳	-13256
法的	-13257
臭氧	-13258
赞助	-13259
.16	-13260
关系的	-13261
我可以	-13262
的记录	-13263
disc	-13264
▁Mic	-13265
人权问题	-13266
犯罪行为	-13267
(2007	-13268
onomy	-13269
uling	-13270
▁Cust	-13271
▁Kong	-13272
▁phot	-13273
▁soul	-13274
国际社会的	-13275
ulsory	-13276
▁Green	-13277
▁quiet	-13278
▁career	-13279
▁teaching	-13280
▁undermine	-13281
▁Uzbekistan	-13282
▁separation	-13283
FC	-13284
▁哪	-13285
向其	-13286
详情	-13287
/19	-13288
awi	-13289
rar	-13290
▁Ca	-13291
▁或许	-13292
不稳定	-13293
加强了	-13294
和监测	-13295
的看法	-13296
马耳他	-13297
exts	-13298
▁Ext	-13299
▁Sat	-13300
地方当局	-13301
强调指出	-13302
紧急情况	-13303
赔偿责任	-13304
acing	-13305
▁Hong	-13306
▁oral	-13307
常驻代表团	-13308
的一个重要	-13309
缔约国会议	-13310
ulsion	-13311
▁rebel	-13312
联合国系统内	-13313
▁Annual	-13314
tenstein	-13315
▁kidding	-13316
▁rapport	-13317
▁attempts	-13318
▁concerted	-13319
▁reflecting	-13320
不人道或有辱人格的待遇	-13321
前南斯拉夫的马其顿共和国	-13322
▁confidential	-13323
公民权利和政治权利国际公约	-13324
-8	-13325
CT	-13326
均衡	-13327
培养	-13328
大型	-13329
它在	-13330
平台	-13331
无效	-13332
样子	-13333
睡觉	-13334
答案	-13335
莫桑	-13336
还没	-13337
这两	-13338
oes	-13339
ugh	-13340
合理的	-13341
大会的	-13342
捐助方	-13343
每个人	-13344
流行病	-13345
给我们	-13346
iant	-13347
▁59.	-13348
▁Ele	-13349
▁提交人	-13350
莫桑比克	-13351
allel	-13352
▁Fine	-13353
▁Jean	-13354
▁blow	-13355
▁boss	-13356
▁hero	-13357
▁临时议程	-13358
东耶路撒冷	-13359
以及联合国	-13360
ancies	-13361
▁Saint	-13362
▁dollar	-13363
▁remedy	-13364
▁coastal	-13365
▁confisc	-13366
▁lawyers	-13367
▁privile	-13368
▁Mongolia	-13369
▁preserve	-13370
▁afternoon	-13371
▁decentral	-13372
▁entrepren	-13373
▁Prohibition	-13374
▁consequence	-13375
▁displacement	-13376
Ag	-13377
▁西	-13378
▁還	-13379
共享	-13380
减免	-13381
帐户	-13382
炸弹	-13383
然而	-13384
犯下	-13385
米尔	-13386
谋求	-13387
aba	-13388
▁你也	-13389
▁古巴	-13390
▁结果	-13391
不应该	-13392
允许我	-13393
组织在	-13394
经济的	-13395
iced	-13396
oses	-13397
▁64.	-13398
▁Lou	-13399
开展合作	-13400
战略计划	-13401
生产总值	-13402
inter	-13403
itted	-13404
▁roll	-13405
利益攸关方	-13406
▁Hague	-13407
▁Decree	-13408
▁convey	-13409
方面取得的进展	-13410
▁Moldova	-13411
▁Question	-13412
▁mutually	-13413
▁subjects	-13414
▁tangible	-13415
echtenstein	-13416
▁landlocked	-13417
▁productivity	-13418
'.	-13419
3(	-13420
▁或	-13421
一方	-13422
保密	-13423
几天	-13424
响应	-13425
在你	-13426
打开	-13427
施政	-13428
空气	-13429
统治	-13430
那儿	-13431
▁Ok	-13432
▁一定	-13433
▁宝贝	-13434
▁要求	-13435
也就是	-13436
六个月	-13437
大西洋	-13438
开玩笑	-13439
我们将	-13440
涉及到	-13441
的保护	-13442
经共体	-13443
▁62.	-13444
▁Rob	-13445
▁ran	-13446
各成员国	-13447
成员国的	-13448
idden	-13449
ipped	-13450
实质性会议	-13451
border	-13452
irable	-13453
▁Yemen	-13454
▁arise	-13455
▁books	-13456
arcotic	-13457
▁Source	-13458
▁copies	-13459
▁inputs	-13460
▁Contrib	-13461
▁Remember	-13462
▁duration	-13463
▁defenders	-13464
▁elsewhere	-13465
▁entrusted	-13466
▁喔	-13467
发誓	-13468
另有	-13469
幸福	-13470
普查	-13471
编辑	-13472
bed	-13473
iji	-13474
itc	-13475
▁但你	-13476
不仅仅	-13477
和机构	-13478
将这些	-13479
110}	-13480
erto	-13481
ette	-13482
▁69.	-13483
▁hat	-13484
有罪不罚	-13485
artic	-13486
matic	-13487
itudes	-13488
▁Press	-13489
▁assum	-13490
▁input	-13491
性别观点纳入	-13492
blackfs	-13493
fnarial	-13494
▁Contin	-13495
▁Mechan	-13496
▁receiv	-13497
维持和平特派团	-13498
oriented	-13499
▁Albania	-13500
▁endorse	-13501
▁applying	-13502
▁possibly	-13503
非洲发展新伙伴关系	-13504
fnarialblackfs	-13505
-0	-13506
IU	-13507
口译	-13508
名称	-13509
是指	-13510
权威	-13511
植物	-13512
被害	-13513
远远	-13514
▁法国	-13515
不需要	-13516
以支持	-13517
▁12,	-13518
▁Maj	-13519
▁这是我	-13520
纳米比亚	-13521
liers	-13522
▁Post	-13523
部长级会议	-13524
▁breat	-13525
▁lived	-13526
▁marry	-13527
▁freely	-13528
▁proved	-13529
Original	-13530
▁falling	-13531
▁facility	-13532
▁overview	-13533
▁patterns	-13534
▁revision	-13535
▁excessive	-13536
▁conviction	-13537
▁inspection	-13538
▁regardless	-13539
▁intelligence	-13540
▁transmitting	-13541
],	-13542
▁若	-13543
全民	-13544
完了	-13545
对抗	-13546
当中	-13547
授予	-13548
推行	-13549
故意	-13550
标题	-13551
照会	-13552
超越	-13553
黑体	-13554
662	-13555
ett	-13556
包括对	-13557
并促进	-13558
from	-13559
▁66.	-13560
▁Bob	-13561
▁Has	-13562
▁Joe	-13563
▁reb	-13564
▁sch	-13565
清洁发展	-13566
非法贩运	-13567
orter	-13568
▁euro	-13569
▁song	-13570
cribed	-13571
icians	-13572
▁Basel	-13573
国际恐怖主义	-13574
▁orally	-13575
▁themes	-13576
▁causing	-13577
▁Montreal	-13578
▁outreach	-13579
▁realized	-13580
▁yesterday	-13581
▁Corruption	-13582
▁imperative	-13583
▁Suppression	-13584
▁facilitation	-13585
Le	-13586
fl	-13587
主意	-13588
司长	-13589
四年	-13590
垃圾	-13591
應當	-13592
手机	-13593
批评	-13594
晚安	-13595
没人	-13596
清除	-13597
离婚	-13598
置于	-13599
配偶	-13600
Ind	-13601
▁是你	-13602
不存在	-13603
了一份	-13604
民众国	-13605
的教育	-13606
美国和	-13607
部队的	-13608
zing	-13609
▁61.	-13610
▁Tob	-13611
▁第六十	-13612
刑事诉讼	-13613
国家人权	-13614
正式语文	-13615
筹备工作	-13616
▁bast	-13617
▁rout	-13618
社会和经济	-13619
阿尔巴尼亚	-13620
▁Claim	-13621
▁Tajik	-13622
▁divor	-13623
▁Mozamb	-13624
▁easily	-13625
▁harass	-13626
宣言和行动纲领	-13627
消除对妇女歧视	-13628
▁Freedom	-13629
▁ordinary	-13630
▁pleasure	-13631
▁presents	-13632
▁carefully	-13633
▁mandatory	-13634
▁techniques	-13635
▁congratulate	-13636
可持续发展问题世界首脑会议	-13637
7%	-13638
79	-13639
也门	-13640
会儿	-13641
信心	-13642
对他	-13643
常任	-13644
毛额	-13645
用作	-13646
短缺	-13647
购置	-13648
除外	-13649
awa	-13650
▁下列	-13651
▁你真	-13652
▁区域	-13653
回来了	-13654
市场的	-13655
没什么	-13656
otal	-13657
所提供的	-13658
iates	-13659
night	-13660
▁ausp	-13661
▁park	-13662
alysis	-13663
apping	-13664
▁texts	-13665
licated	-13666
▁(2004)	-13667
▁Father	-13668
▁Lastly	-13669
▁rising	-13670
ecommunic	-13671
▁cultures	-13672
▁flexible	-13673
▁reductions	-13674
▁interdepend	-13675
▁continuation	-13676
AF	-13677
众多	-13678
免疫	-13679
基因	-13680
复原	-13681
浪费	-13682
船只	-13683
足以	-13684
/22	-13685
erb	-13686
不信道	-13687
和决定	-13688
在哪儿	-13689
或加入	-13690
的机制	-13691
的组织	-13692
的贡献	-13693
.109	-13694
anim	-13695
illa	-13696
ilty	-13697
mosp	-13698
post	-13699
shop	-13700
▁11,	-13701
▁58.	-13702
▁所以我	-13703
准则草案	-13704
市场准入	-13705
▁Anti	-13706
▁Pres	-13707
▁Rest	-13708
▁hung	-13709
▁magn	-13710
▁scen	-13711
加强联合国	-13712
▁1994,	-13713
▁gains	-13714
▁loved	-13715
▁mitig	-13716
▁worst	-13717
阿拉伯利比亚	-13718
▁Eradic	-13719
▁extrem	-13720
▁online	-13721
▁ratify	-13722
▁seemed	-13723
▁summar	-13724
Chairman	-13725
▁Bearing	-13726
▁disturb	-13727
▁generate	-13728
▁mobilize	-13729
▁dedicated	-13730
▁accompanied	-13731
▁introducing	-13732
▁特	-13733
买卖	-13734
产妇	-13735
你去	-13736
出发	-13737
分担	-13738
布尔	-13739
库存	-13740
有多	-13741
简化	-13742
证件	-13743
退化	-13744
那边	-13745
ips	-13746
par	-13747
▁小心	-13748
▁这么	-13749
个人的	-13750
标准的	-13751
清楚地	-13752
的领域	-13753
ails	-13754
ibia	-13755
专家会议	-13756
有关各方	-13757
蒙特利尔	-13758
这一进程	-13759
非常重要	-13760
▁Inst	-13761
▁wake	-13762
lawful	-13763
▁Greek	-13764
▁Niger	-13765
▁enshr	-13766
▁manual	-13767
▁slight	-13768
ordinary	-13769
▁collect	-13770
▁removed	-13771
▁Articles	-13772
▁Monetary	-13773
▁academic	-13774
▁amounted	-13775
▁genocide	-13776
▁programs	-13777
▁foundation	-13778
▁underlying	-13779
▁elaboration	-13780
免受	-13781
动机	-13782
多斯	-13783
巴马	-13784
核能	-13785
生意	-13786
联塞	-13787
船舶	-13788
营地	-13789
问你	-13790
/53	-13791
SBI	-13792
osh	-13793
wan	-13794
▁不会	-13795
▁不好	-13796
▁至少	-13797
之一是	-13798
的局势	-13799
等问题	-13800
该国的	-13801
难民和	-13802
▁Deb	-13803
▁我相信	-13804
▁没什么	-13805
该缔约国	-13806
领土完整	-13807
▁Hond	-13808
▁Know	-13809
▁OECD	-13810
▁isol	-13811
icious	-13812
▁Syria	-13813
illance	-13814
▁firmly	-13815
iciaries	-13816
▁Current	-13817
▁Journal	-13818
▁assumed	-13819
▁revital	-13820
▁Dialogue	-13821
▁purchase	-13822
▁委员会建议缔约国	-13823
打击跨国有组织犯罪公约	-13824
▁facilitated	-13825
▁supervision	-13826
▁Consultative	-13827
▁expectations	-13828
(“	-13829
GB	-13830
到达	-13831
天然	-13832
尸体	-13833
布雷	-13834
撤出	-13835
早就	-13836
标志	-13837
每月	-13838
那末	-13839
80}	-13840
voy	-13841
war	-13842
个人和	-13843
和司法	-13844
都拉斯	-13845
aHBE	-13846
pper	-13847
▁63.	-13848
▁Jul	-13849
▁sac	-13850
▁在过去	-13851
严重违反	-13852
向安理会	-13853
特别注意	-13854
的目的是	-13855
解决冲突	-13856
金融危机	-13857
▁bill	-13858
方面取得了	-13859
无核武器区	-13860
itizen	-13861
808080}	-13862
▁(1999)	-13863
▁removal	-13864
▁storage	-13865
▁Everyone	-13866
▁heritage	-13867
▁replaced	-13868
▁terrible	-13869
▁detainees	-13870
▁dimension	-13871
▁discharge	-13872
▁sponsored	-13873
▁subregion	-13874
▁credibility	-13875
▁restructuring	-13876
za	-13877
▁使	-13878
伯特	-13879
其余	-13880
分布	-13881
剩余	-13882
力求	-13883
当今	-13884
房地	-13885
病人	-13886
确信	-13887
第八	-13888
级别	-13889
组合	-13890
阶层	-13891
olf	-13892
xic	-13893
▁$3	-13894
▁Dj	-13895
▁代表	-13896
债务人	-13897
的第一	-13898
的答复	-13899
能力的	-13900
▁COM	-13901
▁FDI	-13902
了一系列	-13903
共同努力	-13904
性别平等	-13905
洪都拉斯	-13906
表示支持	-13907
azing	-13908
field	-13909
▁reim	-13910
▁trip	-13911
▁camer	-13912
▁hopes	-13913
▁union	-13914
发展中国家和	-13915
恐怖主义行为	-13916
atories	-13917
▁intent	-13918
▁planet	-13919
▁evening	-13920
联合国开发计划署	-13921
▁weakness	-13922
▁analytical	-13923
▁legitimacy	-13924
▁Contracting	-13925
▁corrigendum	-13926
▁submissions	-13927
▁Consequently	-13928
▁Institutions	-13929
制约	-13930
前提	-13931
展示	-13932
并于	-13933
支配	-13934
是以	-13935
监护	-13936
答应	-13937
缴款	-13938
膨胀	-13939
运行	-13940
首都	-13941
-14	-13942
.2,	-13943
▁Os	-13944
以及为	-13945
规划和	-13946
训研所	-13947
illy	-13948
▁Max	-13949
▁Spe	-13950
▁mil	-13951
什么时候	-13952
所需资源	-13953
执行计划	-13954
法律援助	-13955
职权范围	-13956
usion	-13957
▁vast	-13958
▁aspir	-13959
向大会第六十	-13960
▁assure	-13961
▁symbol	-13962
riminate	-13963
▁clothes	-13964
▁recalls	-13965
▁entering	-13966
▁managing	-13967
▁marginal	-13968
▁revealed	-13969
▁dimensions	-13970
▁inequality	-13971
▁observance	-13972
▁Delegations	-13973
▁anticipated	-13974
任用	-13975
和更	-13976
干旱	-13977
抵抗	-13978
海牙	-13979
矛盾	-13980
童工	-13981
较低	-13982
imp	-13983
▁你得	-13984
技术的	-13985
提供给	-13986
ados	-13987
ford	-13988
▁10,	-13989
▁Mac	-13990
没有得到	-13991
表示感谢	-13992
inces	-13993
▁hang	-13994
▁我们需要	-13995
的暴力行为	-13996
▁Final	-13997
▁James	-13998
▁Youth	-13999
▁mouth	-14000
▁broken	-14001
▁finish	-14002
▁nobody	-14003
▁remarks	-14004
▁auspices	-14005
▁concepts	-14006
▁projected	-14007
中等	-14008
作物	-14009
加工	-14010
哥哥	-14011
如今	-14012
找出	-14013
是为	-14014
核定	-14015
煽动	-14016
生计	-14017
类的	-14018
自杀	-14019
/14	-14020
10.	-14021
att	-14022
▁当时	-14023
号法令	-14024
多米尼	-14025
已经在	-14026
我们就	-14027
正确的	-14028
為什麼	-14029
的形式	-14030
的谈判	-14031
1988	-14032
hand	-14033
orts	-14034
▁Atl	-14035
▁fle	-14036
国家发展	-14037
进行调查	-14038
ested	-14039
icide	-14040
▁crop	-14041
▁frag	-14042
▁hind	-14043
▁sake	-14044
和其他残忍	-14045
政策和方案	-14046
核武器国家	-14047
阿拉伯联合	-14048
countr	-14049
ducive	-14050
ulates	-14051
▁spoke	-14052
▁人权委员会	-14053
巴勒斯坦难民	-14054
▁Sahara	-14055
▁convers	-14056
▁council	-14057
▁vehicle	-14058
▁Regarding	-14059
▁expanding	-14060
▁investors	-14061
▁twentieth	-14062
▁Mozambique	-14063
▁Unfortunately	-14064
▁extrabudgetary	-14065
Af	-14066
▁图	-14067
利润	-14068
很高	-14069
未决	-14070
疯狂	-14071
荣幸	-14072
/33	-14073
New	-14074
dec	-14075
▁WH	-14076
▁自从	-14077
尔先生	-14078
指挥官	-14079
期待着	-14080
法院的	-14081
第三方	-14082
▁67.	-14083
全权证书	-14084
分发为荷	-14085
这一目标	-14086
采取适当	-14087
预防冲突	-14088
astic	-14089
range	-14090
▁Sara	-14091
▁cast	-14092
▁shar	-14093
▁stem	-14094
▁代理主席	-14095
塔吉克斯坦	-14096
(2005)	-14097
orters	-14098
▁fired	-14099
和非政府组织	-14100
拟议方案预算	-14101
▁borrow	-14102
▁coffee	-14103
▁counse	-14104
▁cluster	-14105
▁forests	-14106
▁Whatever	-14107
▁confront	-14108
▁allegedly	-14109
▁conducive	-14110
▁uncertain	-14111
▁evaluations	-14112
▁Liechtenstein	-14113
▁查	-14114
下面	-14115
了在	-14116
他妈	-14117
公职	-14118
吉斯	-14119
想象	-14120
接收	-14121
法外	-14122
清理	-14123
结核	-14124
阵线	-14125
▁64	-14126
▁Tu	-14127
成功的	-14128
的立场	-14129
的进程	-14130
能力和	-14131
项目厅	-14132
cies	-14133
ethe	-14134
▁aqu	-14135
所造成的	-14136
本组织的	-14137
orney	-14138
▁Eval	-14139
▁Merc	-14140
▁Whoa	-14141
▁这是什么	-14142
第五委员会	-14143
▁Cuban	-14144
▁Light	-14145
▁SBSTA	-14146
科技咨询机构	-14147
▁preval	-14148
▁Perhaps	-14149
▁schemes	-14150
▁shelter	-14151
▁Business	-14152
▁distingu	-14153
▁evaluate	-14154
▁generated	-14155
▁underlined	-14156
▁contractual	-14157
International	-14158
wa	-14159
▁凯	-14160
国务	-14161
姑娘	-14162
小子	-14163
投诉	-14164
易受	-14165
格林	-14166
欧安	-14167
的非	-14168
竞赛	-14169
第九	-14170
艰难	-14171
要点	-14172
WAS	-14173
mat	-14174
▁他会	-14175
▁我可	-14176
一定会	-14177
对不起	-14178
最近的	-14179
的许多	-14180
自由和	-14181
隔离墙	-14182
idad	-14183
▁Hen	-14184
再生能源	-14185
国际文书	-14186
的必要性	-14187
habit	-14188
mbuds	-14189
ranch	-14190
▁rain	-14191
▁rend	-14192
▁我们现在	-14193
的能力建设	-14194
uvenile	-14195
▁Combat	-14196
▁Master	-14197
最不发达国家的	-14198
▁mistake	-14199
▁patient	-14200
▁reserve	-14201
▁warrant	-14202
▁Emirates	-14203
▁annually	-14204
▁issuance	-14205
▁offering	-14206
▁Something	-14207
▁Tajikistan	-14208
▁compulsory	-14209
▁favourable	-14210
▁mitigation	-14211
▁provincial	-14212
▁transaction	-14213
71	-14214
中学	-14215
也可	-14216
利率	-14217
原件	-14218
月底	-14219
波多	-14220
通货	-14221
/2,	-14222
And	-14223
irt	-14224
uts	-14225
▁$2	-14226
▁女士	-14227
▁看来	-14228
你們的	-14229
对所有	-14230
巴塞尔	-14231
确保在	-14232
▁Van	-14233
法律文书	-14234
生殖健康	-14235
,2007	-14236
Islam	-14237
depth	-14238
▁deny	-14239
妇女和女孩	-14240
erated	-14241
ourage	-14242
▁firms	-14243
▁kidna	-14244
▁offset	-14245
▁eastern	-14246
▁appeared	-14247
▁wrongful	-14248
▁permitted	-14249
▁organizing	-14250
▁television	-14251
▁Directorate	-14252
▁negotiating	-14253
▁perspectives	-14254
IX	-14255
PS	-14256
és	-14257
▁吃	-14258
▁科	-14259
之时	-14260
判断	-14261
捕捞	-14262
斐济	-14263
新兴	-14264
议院	-14265
逆转	-14266
All	-14267
ham	-14268
▁..	-14269
▁Pu	-14270
▁经济	-14271
也不会	-14272
和占领	-14273
提到了	-14274
理事国	-14275
的变化	-14276
的比例	-14277
▁900	-14278
▁Big	-14279
▁Tre	-14280
工业发展	-14281
工作计划	-14282
电子商务	-14283
继续进行	-14284
▁Care	-14285
▁Conf	-14286
▁Fort	-14287
▁(2008	-14288
▁named	-14289
▁simpl	-14290
▁video	-14291
▁weird	-14292
向大会第五十	-14293
▁merely	-14294
▁utmost	-14295
暂行议事规则第	-14296
▁banking	-14297
▁revenue	-14298
▁somewhere	-14299
▁commentary	-14300
▁comprising	-14301
▁ultimately	-14302
▁willingness	-14303
▁harmonization	-14304
4(	-14305
ba	-14306
▁&	-14307
为在	-14308
分割	-14309
国别	-14310
委托	-14311
年初	-14312
开采	-14313
本人	-14314
欣见	-14315
犯有	-14316
税收	-14317
那时	-14318
CER	-14319
做出了	-14320
分析和	-14321
名成员	-14322
在某些	-14323
培训班	-14324
得到的	-14325
性意见	-14326
政府对	-14327
该方案	-14328
▁Log	-14329
十分重要	-14330
妇女参与	-14331
履行机构	-14332
社会经济	-14333
记录表决	-14334
andan	-14335
ittle	-14336
ounds	-14337
▁963-	-14338
▁fing	-14339
▁wear	-14340
establ	-14341
▁Corre	-14342
▁react	-14343
▁river	-14344
▁Corpor	-14345
▁aspect	-14346
▁carbon	-14347
▁guilty	-14348
▁Certain	-14349
▁convene	-14350
▁derived	-14351
▁forever	-14352
▁shouldn	-14353
▁species	-14354
▁regarded	-14355
阿拉伯利比亚民众国	-14356
▁connected	-14357
▁Industrial	-14358
▁limitations	-14359
)]	-14360
IA	-14361
利息	-14362
制品	-14363
危及	-14364
去找	-14365
呼吸	-14366
复苏	-14367
尔德	-14368
干涉	-14369
开办	-14370
水层	-14371
看着	-14372
这份	-14373
/1/	-14374
/30	-14375
/38	-14376
ini	-14377
▁正在	-14378
制定的	-14379
合法性	-14380
和信息	-14381
我认为	-14382
法庭的	-14383
的一份	-14384
的家庭	-14385
▁Mag	-14386
▁Mer	-14387
▁Sen	-14388
▁adj	-14389
▁glo	-14390
▁phr	-14391
利益有关	-14392
while	-14393
▁broke	-14394
▁kinds	-14395
▁sales	-14396
▁saved	-14397
▁swear	-14398
▁特别委员会	-14399
清洁发展机制	-14400
istance	-14401
▁Powers	-14402
▁waters	-14403
▁赞赏地注意到	-14404
▁stopped	-14405
▁undersc	-14406
▁verbale	-14407
sessional	-14408
▁2002-200	-14409
▁normally	-14410
▁software	-14411
▁Punishment	-14412
*、	-14413
Ad	-14414
之日	-14415
公里	-14416
关押	-14417
变动	-14418
在对	-14419
地图	-14420
子里	-14421
对策	-14422
年中	-14423
忆及	-14424
无关	-14425
等人	-14426
航天	-14427
谈论	-14428
赢得	-14429
采纳	-14430
重组	-14431
11.	-14432
aco	-14433
asy	-14434
旅游业	-14435
没事吧	-14436
的改革	-14437
的数量	-14438
签署的	-14439
裁谈会	-14440
讨论的	-14441
/250	-14442
omet	-14443
rans	-14444
▁IMF	-14445
▁他妈的	-14446
财政期间	-14447
重点放在	-14448
高等教育	-14449
国家和国际	-14450
ecture	-14451
wealth	-14452
▁Lakes	-14453
▁shift	-14454
▁twice	-14455
compass	-14456
▁Closed	-14457
▁summer	-14458
▁window	-14459
▁driving	-14460
▁popular	-14461
巴勒斯坦权力机构	-14462
▁Capacity	-14463
▁Japanese	-14464
▁collected	-14465
▁locations	-14466
▁beneficiaries	-14467
▁算	-14468
单元	-14469
团长	-14470
圣诞	-14471
大了	-14472
已經	-14473
弟弟	-14474
或其	-14475
担忧	-14476
最为	-14477
核实	-14478
章程	-14479
身边	-14480
选出	-14481
ais	-14482
ded	-14483
zen	-14484
▁各位	-14485
▁告诉	-14486
以提高	-14487
对我们	-14488
波多黎	-14489
编写的	-14490
200,	-14491
East	-14492
cher	-14493
▁syn	-14494
区域中心	-14495
提供支持	-14496
这项工作	-14497
,2006	-14498
eless	-14499
erend	-14500
state	-14501
▁Jane	-14502
▁hide	-14503
提供必要的	-14504
(2003)	-14505
▁coerc	-14506
▁feels	-14507
▁lucky	-14508
▁Access	-14509
▁UNIFEM	-14510
▁brings	-14511
▁gained	-14512
▁urgency	-14513
▁Disaster	-14514
▁register	-14515
▁thousand	-14516
▁Christmas	-14517
▁ceasefire	-14518
▁formulate	-14519
▁meaningful	-14520
▁negotiated	-14521
▁participatory	-14522
倾向	-14523
前的	-14524
叫我	-14525
均应	-14526
岁的	-14527
幸运	-14528
当代	-14529
悲剧	-14530
是要	-14531
海外	-14532
由此	-14533
而非	-14534
要做	-14535
面积	-14536
▁73	-14537
东南亚	-14538
同时也	-14539
工作和	-14540
控制的	-14541
有任何	-14542
的支助	-14543
▁Enh	-14544
▁没有人	-14545
寻求庇护	-14546
成本效益	-14547
.105/	-14548
isted	-14549
▁ride	-14550
▁thou	-14551
▁elder	-14552
▁rough	-14553
▁caught	-14554
▁client	-14555
▁scient	-14556
▁unanim	-14557
▁Secondly	-14558
▁diamonds	-14559
▁eligible	-14560
▁villages	-14561
▁Voluntary	-14562
▁disseminate	-14563
▁biodiversity	-14564
▁transitional	-14565
不人道或有辱人格的待遇或处罚	-14566
',	-14567
05	-14568
一件	-14569
信用	-14570
形象	-14571
毕业	-14572
深刻	-14573
美丽	-14574
说你	-14575
贯彻	-14576
eck	-14577
gyz	-14578
》(《	-14579
低收入	-14580
决定将	-14581
协调厅	-14582
参与了	-14583
增长率	-14584
的和平	-14585
的成果	-14586
这就是	-14587
berc	-14588
lass	-14589
rgyz	-14590
zero	-14591
▁ECO	-14592
常设论坛	-14593
的进一步	-14594
这些活动	-14595
这是一个	-14596
isons	-14597
table	-14598
▁ring	-14599
▁(2000	-14600
▁Grand	-14601
▁enorm	-14602
▁smugg	-14603
▁Survey	-14604
▁corner	-14605
▁instal	-14606
▁sensit	-14607
boundary	-14608
▁closing	-14609
▁heading	-14610
▁liaison	-14611
▁sincere	-14612
▁accurate	-14613
▁Emergency	-14614
▁justified	-14615
▁compromise	-14616
▁persistent	-14617
▁eliminating	-14618
▁manifestations	-14619
▁characteristics	-14620
DE	-14621
▁次	-14622
》)	-14623
储蓄	-14624
在不	-14625
地中	-14626
才会	-14627
指称	-14628
收容	-14629
是吗	-14630
权限	-14631
林业	-14632
老婆	-14633
赠款	-14634
金属	-14635
▁Iv	-14636
▁明白	-14637
▁长官	-14638
号来文	-14639
各机构	-14640
实验室	-14641
并根据	-14642
的服务	-14643
的那些	-14644
约束力	-14645
ball	-14646
empl	-14647
ided	-14648
lied	-14649
▁Sex	-14650
▁dri	-14651
受害者的	-14652
成为一个	-14653
有效执行	-14654
endix	-14655
eploy	-14656
iment	-14657
▁Fiji	-14658
▁Free	-14659
▁如果我们	-14660
同时考虑到	-14661
▁Canad	-14662
▁Major	-14663
▁filed	-14664
▁image	-14665
grammes	-14666
urances	-14667
▁eighth	-14668
▁digital	-14669
▁malaria	-14670
▁restore	-14671
▁Workshop	-14672
▁describe	-14673
▁literacy	-14674
▁monetary	-14675
▁parallel	-14676
▁province	-14677
▁servants	-14678
▁Reporting	-14679
▁degrading	-14680
▁inflation	-14681
▁assumption	-14682
▁transmission	-14683
▁possibilities	-14684
▁substantially	-14685
OW	-14686
只会	-14687
塞族	-14688
屁股	-14689
征求	-14690
散发	-14691
是最	-14692
法典	-14693
派对	-14694
胜利	-14695
节省	-14696
12.	-14697
GDP	-14698
iro	-14699
uan	-14700
▁ST	-14701
和一个	-14702
和其它	-14703
的态度	-14704
的限制	-14705
还必须	-14706
都可以	-14707
长时间	-14708
.1).	-14709
damn	-14710
▁Had	-14711
▁如果我	-14712
不利影响	-14713
所采取的	-14714
排雷行动	-14715
波多黎各	-14716
麻醉药品	-14717
aguay	-14718
ether	-14719
▁Hall	-14720
▁Jose	-14721
▁资料来源	-14722
亚太经社会	-14723
作出的努力	-14724
入侵和占领	-14725
▁approve	-14726
▁Colonial	-14727
▁Conflict	-14728
▁hazardous	-14729
▁frequently	-14730
▁incentives	-14731
▁consolidate	-14732
▁exceptional	-14733
-9	-14734
▁七	-14735
人身	-14736
付诸	-14737
健全	-14738
分裂	-14739
号码	-14740
所能	-14741
文章	-14742
早日	-14743
网址	-14744
里约	-14745
顾及	-14746
160	-14747
IDB	-14748
asp	-14749
uda	-14750
▁Hy	-14751
巴多斯	-14752
的适当	-14753
面临着	-14754
▁(4)	-14755
▁kil	-14756
海洋环境	-14757
这样一个	-14758
point	-14759
▁negl	-14760
海洋法公约	-14761
▁(2003	-14762
▁Ocean	-14763
▁laugh	-14764
▁spare	-14765
develop	-14766
▁Nobody	-14767
▁resort	-14768
▁Welcome	-14769
▁relates	-14770
▁summits	-14771
▁Dominican	-14772
▁addresses	-14773
▁interactive	-14774
▁restoration	-14775
▁relationships	-14776
▁別	-14777
使命	-14778
在他	-14779
地址	-14780
将军	-14781
应将	-14782
得很	-14783
案情	-14784
没错	-14785
治安	-14786
疯了	-14787
的确	-14788
直升	-14789
缩小	-14790
缴纳	-14791
跳舞	-14792
追求	-14793
.23	-14794
Sah	-14795
▁一旦	-14796
▁并且	-14797
了我的	-14798
以实现	-14799
卫生部	-14800
唯一的	-14801
对国际	-14802
laim	-14803
▁Neg	-14804
▁Rod	-14805
▁我们是	-14806
▁我爱你	-14807
贩卖人口	-14808
这些措施	-14809
▁Life	-14810
▁resc	-14811
▁shop	-14812
▁Local	-14813
▁blind	-14814
▁insec	-14815
▁unequ	-14816
▁accred	-14817
▁define	-14818
▁impose	-14819
两年期方案预算	-14820
▁harmful	-14821
▁mankind	-14822
▁mothers	-14823
personnel	-14824
被占领巴勒斯坦领土	-14825
▁enshrined	-14826
▁formation	-14827
▁targeting	-14828
▁Responsible	-14829
▁surveillance	-14830
前进	-14831
卡拉	-14832
否决	-14833
生的	-14834
试试	-14835
鱼类	-14836
12,	-14837
:30	-14838
▁Er	-14839
▁参加	-14840
各国在	-14841
含水层	-14842
多样化	-14843
是由于	-14844
殖民地	-14845
的价值	-14846
的精神	-14847
类似的	-14848
见到你	-14849
fast	-14850
▁68.	-14851
为此目的	-14852
儿童问题	-14853
各缔约国	-14854
妇女权利	-14855
所有其他	-14856
提供一个	-14857
的受害者	-14858
约束力的	-14859
高级代表	-14860
,2003	-14861
isite	-14862
▁boat	-14863
▁samp	-14864
▁tick	-14865
主席团成员	-14866
▁Clear	-14867
▁Grant	-14868
▁sight	-14869
▁Prosec	-14870
▁motion	-14871
阿拉伯联合酋长	-14872
▁Bahrain	-14873
▁Namibia	-14874
▁notably	-14875
▁ordered	-14876
▁pursuit	-14877
▁surveys	-14878
和平利用外层空间	-14879
▁Honduras	-14880
▁Paraguay	-14881
▁granting	-14882
▁Everybody	-14883
▁Regulation	-14884
▁Violations	-14885
▁description	-14886
▁duplication	-14887
TH	-14888
▁斯	-14889
一贯	-14890
分开	-14891
分至	-14892
尔摩	-14893
彼得	-14894
我还	-14895
有力	-14896
避孕	-14897
钥匙	-14898
/6/	-14899
ulf	-14900
▁ru	-14901
▁第十	-14902
▁都是	-14903
受到了	-14904
合作和	-14905
和分析	-14906
和贸易	-14907
国政府	-14908
执行的	-14909
是通过	-14910
爆炸物	-14911
获得了	-14912
ypri	-14913
▁Huh	-14914
▁van	-14915
中小企业	-14916
中的作用	-14917
以西班牙	-14918
圆桌会议	-14919
执行秘书	-14920
最大限度	-14921
调查结果	-14922
month	-14923
▁king	-14924
▁seas	-14925
妇女和女童	-14926
很大程度上	-14927
附加议定书	-14928
ceived	-14929
▁Leave	-14930
▁Recon	-14931
▁square	-14932
▁toward	-14933
增进和保护人权	-14934
mbudsman	-14935
▁intends	-14936
▁returns	-14937
▁anywhere	-14938
▁birthday	-14939
▁obtaining	-14940
▁suspended	-14941
▁university	-14942
▁progressive	-14943
ym	-14944
▁埃	-14945
▁祝	-14946
伤亡	-14947
和无	-14948
完善	-14949
将与	-14950
所属	-14951
敬畏	-14952
村庄	-14953
条和	-14954
段所	-14955
辅助	-14956
麦克	-14957
▁oh	-14958
▁走吧	-14959
所谓的	-14960
的状况	-14961
类索赔	-14962
转型期	-14963
都知道	-14964
▁20,	-14965
▁ODA	-14966
▁fal	-14967
▁lab	-14968
▁rot	-14969
借此机会	-14970
吉尔吉斯	-14971
国际金融	-14972
技术转让	-14973
管理人员	-14974
▁bath	-14975
代表团认为	-14976
Islamic	-14977
▁Reform	-14978
▁Senior	-14979
▁strike	-14980
▁unlike	-14981
建设和平委员会	-14982
pportion	-14983
▁install	-14984
▁refrain	-14985
▁strictly	-14986
▁candidate	-14987
▁Statistical	-14988
▁acknowledge	-14989
▁Independence	-14990
▁Participation	-14991
▁admissibility	-14992
也没	-14993
免遭	-14994
前面	-14995
原谅	-14996
去吧	-14997
季度	-14998
孤儿	-14999
有用	-15000
lit	-15001
▁66	-15002
▁她的	-15003
为促进	-15004
并支持	-15005
怎么做	-15006
政府与	-15007
活动中	-15008
的犯罪	-15009
的部分	-15010
负责人	-15011
ifer	-15012
ught	-15013
▁gar	-15014
加共和国	-15015
(2001	-15016
ading	-15017
▁Upon	-15018
武装冲突中	-15019
特别会议的	-15020
(2002)	-15021
golese	-15022
▁(2007	-15023
▁Cypri	-15024
▁alarm	-15025
▁plane	-15026
▁开发计划署	-15027
人道主义事务	-15028
建立信任措施	-15029
▁Robert	-15030
▁delays	-15031
▁reward	-15032
▁Habitat	-15033
▁forgive	-15034
▁credible	-15035
▁firearms	-15036
▁watching	-15037
▁Congolese	-15038
▁indicator	-15039
▁renewable	-15040
▁assurances	-15041
▁everywhere	-15042
▁enhancement	-15043
▁clarification	-15044
▁desertification	-15045
PV	-15046
ux	-15047
▁高	-15048
上学	-15049
下一	-15050
也应	-15051
出色	-15052
北约	-15053
发送	-15054
太多	-15055
干的	-15056
提起	-15057
格兰	-15058
次序	-15059
礼物	-15060
福祉	-15061
穷国	-15062
辐射	-15063
▁印度	-15064
▁建立	-15065
▁我听	-15066
▁比如	-15067
不可少	-15068
和培训	-15069
失去了	-15070
如果你	-15071
的规则	-15072
这么说	-15073
olan	-15074
▁150	-15075
▁Asp	-15076
▁pal	-15077
国家安全	-15078
由联合国	-15079
闭会期间	-15080
treat	-15081
所作的发言	-15082
ispens	-15083
▁codes	-15084
▁teach	-15085
▁tight	-15086
代表欧洲联盟	-15087
▁(2000)	-15088
▁Kyrgyz	-15089
▁incons	-15090
▁paying	-15091
国内流离失所者	-15092
联合国千年宣言	-15093
▁testing	-15094
经济和社会事务部	-15095
ientation	-15096
▁involves	-15097
▁salaries	-15098
▁buildings	-15099
▁encompass	-15100
▁provinces	-15101
▁limitation	-15102
▁submitting	-15103
▁translation	-15104
▁supplementary	-15105
1-	-15106
gg	-15107
仇恨	-15108
分离	-15109
抗议	-15110
撤离	-15111
样的	-15112
民用	-15113
电台	-15114
连接	-15115
阿卜	-15116
随便	-15117
ipe	-15118
ona	-15119
▁TV	-15120
▁da	-15121
▁妈的	-15122
▁我叫	-15123
▁更正	-15124
下一个	-15125
有担保	-15126
的综合	-15127
监察员	-15128
社会的	-15129
57/2	-15130
60/2	-15131
fted	-15132
vell	-15133
▁SME	-15134
▁Sil	-15135
▁ast	-15136
从来没有	-15137
咨询小组	-15138
我不知道	-15139
▁Camp	-15140
▁UNCC	-15141
▁jump	-15142
▁quot	-15143
分摊比额表	-15144
委员会认为	-15145
▁Hurry	-15146
▁NEPAD	-15147
▁enrol	-15148
▁deemed	-15149
▁Facilit	-15150
▁Treaties	-15151
▁mobility	-15152
▁prosperity	-15153
withstanding	-15154
▁commodities	-15155
▁complementary	-15156
▁macroeconomic	-15157
三次	-15158
下次	-15159
他会	-15160
再见	-15161
对吧	-15162
极了	-15163
玛丽	-15164
警卫	-15165
证券	-15166
.2.	-15167
/3/	-15168
▁72	-15169
▁AL	-15170
▁我真	-15171
▁支持	-15172
▁直到	-15173
下一次	-15174
和会议	-15175
和消除	-15176
在任何	-15177
有许多	-15178
条例和	-15179
的补充	-15180
科学家	-15181
达加斯	-15182
领域中	-15183
▁74.	-15184
▁Try	-15185
▁cra	-15186
▁你现在	-15187
区域一级	-15188
发展基金	-15189
必不可少	-15190
是否可以	-15191
的权利和	-15192
该国政府	-15193
utory	-15194
▁Rich	-15195
▁orph	-15196
▁trig	-15197
经济共同体	-15198
utable	-15199
▁Daddy	-15200
▁Envoy	-15201
▁agent	-15202
▁fruit	-15203
▁scene	-15204
Saharan	-15205
erendum	-15206
▁Region	-15207
▁Relief	-15208
▁atmosp	-15209
以西班牙语发言	-15210
安全理事会关于	-15211
▁Comment	-15212
▁Related	-15213
▁Serious	-15214
▁clients	-15215
▁devices	-15216
▁evident	-15217
▁worried	-15218
▁suitable	-15219
▁delegates	-15220
▁indispens	-15221
▁suppliers	-15222
▁girlfriend	-15223
▁harassment	-15224
▁Commonwealth	-15225
▁consistently	-15226
▁:	-15227
▁回	-15228
▁雷	-15229
人事	-15230
介意	-15231
依存	-15232
共计	-15233
喜歡	-15234
戈兰	-15235
措辞	-15236
文字	-15237
火箭	-15238
牺牲	-15239
签证	-15240
Can	-15241
For	-15242
占领国	-15243
可行的	-15244
和资源	-15245
地中海	-15246
很好的	-15247
成立了	-15248
的长期	-15249
rine	-15250
▁18,	-15251
▁Bud	-15252
▁Dam	-15253
▁Isn	-15254
▁Que	-15255
▁我还要	-15256
全球经济	-15257
条规定的	-15258
经费筹措	-15259
vised	-15260
▁另一方面	-15261
▁委员会在	-15262
西非经共体	-15263
▁Equal	-15264
▁dates	-15265
▁houses	-15266
▁memory	-15267
▁stockp	-15268
阿拉伯国家联盟	-15269
▁existed	-15270
▁replies	-15271
▁vacancy	-15272
组织和非政府组织	-15273
▁Building	-15274
▁momentum	-15275
▁severely	-15276
▁Registrar	-15277
▁attitudes	-15278
▁explosive	-15279
▁guideline	-15280
▁businesses	-15281
▁suggestion	-15282
,2	-15283
一再	-15284
两级	-15285
人物	-15286
兴奋	-15287
和与	-15288
尔斯	-15289
带着	-15290
能在	-15291
謝謝	-15292
识别	-15293
跟他	-15294
部落	-15295
)).	-15296
一直是	-15297
也不能	-15298
发现了	-15299
巴拉圭	-15300
并呼吁	-15301
拟议的	-15302
消费者	-15303
独立性	-15304
的援助	-15305
破产法	-15306
解释性	-15307
/54/	-15308
ooth	-15309
▁Ens	-15310
▁Web	-15311
▁fly	-15312
▁hyd	-15313
国家方案	-15314
经合组织	-15315
达成协议	-15316
通过一项	-15317
known	-15318
osure	-15319
phone	-15320
▁club	-15321
▁pose	-15322
▁tree	-15323
全体会议上	-15324
提出的问题	-15325
驻地协调员	-15326
/2008/	-15327
Agency	-15328
engers	-15329
▁1993,	-15330
▁Black	-15331
cutting	-15332
▁honest	-15333
▁outset	-15334
▁stands	-15335
[...]
